{"[PAD]":0,"[UNK]":1,"[BOS]":2,"[EOS]":3,"[SEP]":4,"[CLS]":5,"[MASK]":6,"!":7,"\"":8,"%":9,"&":10,"'":11,"(":12,")":13,"+":14,",":15,"-":16,".":17,"/":18,"0":19,"1":20,"2":21,"3":22,"4":23,"5":24,"6":25,"7":26,"8":27,"9":28,":":29,";":30,"<":31,"=":32,">":33,"?":34,"A":35,"B":36,"C":37,"D":38,"E":39,"F":40,"G":41,"H":42,"I":43,"J":44,"K":45,"L":46,"M":47,"N":48,"O":49,"P":50,"Q":51,"R":52,"S":53,"T":54,"U":55,"V":56,"W":57,"X":58,"Y":59,"Z":60,"[":61,"]":62,"_":63,"a":64,"b":65,"c":66,"d":67,"e":68,"f":69,"g":70,"h":71,"i":72,"j":73,"k":74,"l":75,"m":76,"n":77,"o":78,"p":79,"q":80,"r":81,"s":82,"t":83,"u":84,"v":85,"w":86,"x":87,"y":88,"z":89,"|":90,"~":91,"·":92,"é":93,"–":94,"‘":95,"’":96,"“":97,"”":98,"∼":99,"〈":100,"〉":101,"《":102,"》":103,"「":104,"」":105,"『":106,"』":107,"・":108,"一":109,"三":110,"上":111,"中":112,"事":113,"人":114,"使":115,"元":116,"光":117,"公":118,"南":119,"原":120,"君":121,"國":122,"地":123,"城":124,"大":125,"天":126,"太":127,"子":128,"學":129,"安":130,"宗":131,"寺":132,"山":133,"川":134,"州":135,"平":136,"府":137,"德":138,"成":139,"文":140,"明":141,"書":142,"會":143,"李":144,"東":145,"校":146,"正":147,"氏":148,"法":149,"海":150,"王":151,"石":152,"義":153,"西":154,"軍":155,"道":156,"郡":157,"金":158,"長":159,"院":160,"陽":161,"高":162,"가":163,"각":164,"간":165,"갈":166,"감":167,"갑":168,"값":169,"갔":170,"강":171,"갖":172,"같":173,"개":174,"객":175,"거":176,"건":177,"걸":178,"검":179,"것":180,"게":181,"겐":182,"겠":183,"겨":184,"격":185,"겪":186,"견":187,"결":188,"겸":189,"겼":190,"경":191,"계":192,"고":193,"곡":194,"곤":195,"곧":196,"골":197,"곱":198,"곳":199,"공":200,"과":201,"곽":202,"관":203,"괄":204,"광":205,"괴":206,"교":207,"구":208,"국":209,"군":210,"굴":211,"궁":212,"권":213,"궤":214,"귀":215,"규":216,"균":217,"그":218,"극":219,"근":220,"글":221,"금":222,"급":223,"기":224,"긴":225,"길":226,"김":227,"깊":228,"까":229,"깔":230,"깨":231,"꺼":232,"께":233,"꼬":234,"꼭":235,"꼽":236,"꽃":237,"꾸":238,"꿈":239,"뀌":240,"끄":241,"끊":242,"끌":243,"끝":244,"끼":245,"나":246,"낙":247,"난":248,"날":249,"남":250,"납":251,"났":252,"낭":253,"낮":254,"낳":255,"내":256,"낸":257,"낼":258,"냈":259,"냉":260,"냐":261,"냥":262,"너":263,"널":264,"넓":265,"넘":266,"넣":267,"네":268,"넬":269,"넷":270,"녀":271,"년":272,"념":273,"녕":274,"노":275,"녹":276,"논":277,"놀":278,"농":279,"높":280,"놓":281,"뇌":282,"누":283,"눈":284,"뉘":285,"뉴":286,"늄":287,"느":288,"는":289,"늘":290,"능":291,"늦":292,"늬":293,"니":294,"닉":295,"닌":296,"닐":297,"님":298,"닛":299,"닝":300,"다":301,"닥":302,"단":303,"닫":304,"달":305,"담":306,"답":307,"당":308,"대":309,"댄":310,"더":311,"덕":312,"던":313,"덜":314,"덤":315,"덩":316,"덮":317,"데":318,"덴":319,"델":320,"도":321,"독":322,"돈":323,"돌":324,"동":325,"돼":326,"됐":327,"되":328,"된":329,"될":330,"됨":331,"두":332,"둑":333,"둔":334,"둘":335,"둥":336,"뒤":337,"뒷":338,"듀":339,"드":340,"득":341,"든":342,"듣":343,"들":344,"듬":345,"듯":346,"등":347,"디":348,"딘":349,"딩":350,"따":351,"딸":352,"땅":353,"때":354,"떠":355,"떤":356,"떨":357,"떻":358,"또":359,"뛰":360,"뜨":361,"뜻":362,"띠":363,"라":364,"락":365,"란":366,"랄":367,"람":368,"랍":369,"랐":370,"랑":371,"래":372,"랙":373,"랜":374,"램":375,"랫":376,"랭":377,"략":378,"량":379,"러":380,"럭":381,"런":382,"럴":383,"럼":384,"럽":385,"렀":386,"렇":387,"레":388,"렉":389,"렌":390,"렐":391,"려":392,"력":393,"련":394,"렬":395,"렴":396,"렵":397,"렸":398,"령":399,"례":400,"로":401,"록":402,"론":403,"롤":404,"롬":405,"롭":406,"롯":407,"롱":408,"뢰":409,"료":410,"룡":411,"루":412,"룩":413,"룬":414,"룹":415,"뤄":416,"뤼":417,"류":418,"륙":419,"륜":420,"률":421,"륨":422,"르":423,"른":424,"를":425,"름":426,"릉":427,"리":428,"릭":429,"린":430,"릴":431,"림":432,"립":433,"릿":434,"링":435,"마":436,"막":437,"만":438,"많":439,"말":440,"맛":441,"망":442,"맞":443,"맡":444,"매":445,"맥":446,"맨":447,"맹":448,"맺":449,"머":450,"먹":451,"먼":452,"멀":453,"메":454,"멕":455,"멘":456,"멜":457,"멤":458,"며":459,"면":460,"멸":461,"명":462,"몇":463,"모":464,"목":465,"몬":466,"몰":467,"몸":468,"못":469,"몽":470,"묘":471,"무":472,"묵":473,"문":474,"묻":475,"물":476,"뮤":477,"므":478,"미":479,"믹":480,"민":481,"믿":482,"밀":483,"밍":484,"및":485,"밑":486,"바":487,"박":488,"밖":489,"반":490,"받":491,"발":492,"밝":493,"밤":494,"밥":495,"방":496,"배":497,"백":498,"밴":499,"뱀":500,"뱅":501,"버":502,"번":503,"벌":504,"범":505,"법":506,"벗":507,"베":508,"벡":509,"벤":510,"벨":511,"벼":512,"벽":513,"변":514,"별":515,"병":516,"보":517,"복":518,"본":519,"볼":520,"봄":521,"봉":522,"부":523,"북":524,"분":525,"불":526,"붉":527,"붕":528,"붙":529,"뷔":530,"뷰":531,"브":532,"븐":533,"블":534,"비":535,"빅":536,"빈":537,"빌":538,"빙":539,"빛":540,"빠":541,"빨":542,"빼":543,"뼈":544,"뽑":545,"뿌":546,"뿐":547,"사":548,"삭":549,"산":550,"살":551,"삶":552,"삼":553,"상":554,"새":555,"색":556,"샌":557,"샘":558,"생":559,"샤":560,"서":561,"석":562,"선":563,"설":564,"섬":565,"섭":566,"섯":567,"섰":568,"성":569,"세":570,"센":571,"셀":572,"셈":573,"셋":574,"셔":575,"션":576,"셜":577,"셰":578,"소":579,"속":580,"손":581,"솔":582,"송":583,"쇄":584,"쇠":585,"쇼":586,"수":587,"숙":588,"순":589,"술":590,"숨":591,"숫":592,"숭":593,"숲":594,"쉬":595,"쉽":596,"슈":597,"스":598,"슨":599,"슬":600,"슴":601,"습":602,"슷":603,"승":604,"시":605,"식":606,"신":607,"실":608,"심":609,"십":610,"싱":611,"싶":612,"싸":613,"쌍":614,"쌓":615,"써":616,"썼":617,"쓰":618,"쓴":619,"쓸":620,"씨":621,"씩":622,"씬":623,"아":624,"악":625,"안":626,"앉":627,"않":628,"알":629,"암":630,"압":631,"앗":632,"았":633,"앙":634,"앞":635,"애":636,"액":637,"앤":638,"앨":639,"앵":640,"야":641,"약":642,"얀":643,"양":644,"어":645,"억":646,"언":647,"얻":648,"얼":649,"엄":650,"업":651,"없":652,"엇":653,"었":654,"에":655,"엑":656,"엔":657,"엘":658,"엠":659,"여":660,"역":661,"연":662,"열":663,"염":664,"엽":665,"였":666,"영":667,"옆":668,"예":669,"옌":670,"옛":671,"오":672,"옥":673,"온":674,"올":675,"옮":676,"옷":677,"옹":678,"와":679,"완":680,"왔":681,"왕":682,"왜":683,"외":684,"왼":685,"요":686,"욕":687,"용":688,"우":689,"욱":690,"운":691,"울":692,"움":693,"웃":694,"웅":695,"워":696,"원":697,"월":698,"웠":699,"웨":700,"웰":701,"웹":702,"위":703,"윈":704,"윌":705,"유":706,"육":707,"윤":708,"율":709,"융":710,"으":711,"은":712,"을":713,"음":714,"읍":715,"응":716,"의":717,"이":718,"익":719,"인":720,"일":721,"읽":722,"잃":723,"임":724,"입":725,"잇":726,"있":727,"잉":728,"잎":729,"자":730,"작":731,"잔":732,"잘":733,"잠":734,"잡":735,"장":736,"재":737,"잭":738,"쟁":739,"저":740,"적":741,"전":742,"절":743,"젊":744,"점":745,"접":746,"정":747,"제":748,"젝":749,"젠":750,"젤":751,"져":752,"졌":753,"조":754,"족":755,"존":756,"졸":757,"좀":758,"종":759,"좋":760,"좌":761,"죄":762,"주":763,"죽":764,"준":765,"줄":766,"중":767,"쥐":768,"즈":769,"즉":770,"즌":771,"즐":772,"즘":773,"증":774,"지":775,"직":776,"진":777,"질":778,"짐":779,"집":780,"짓":781,"징":782,"짜":783,"짝":784,"짧":785,"째":786,"쪽":787,"쫓":788,"찌":789,"찍":790,"차":791,"착":792,"찬":793,"찰":794,"참":795,"창":796,"찾":797,"채":798,"책":799,"챔":800,"처":801,"척":802,"천":803,"철":804,"첨":805,"첩":806,"첫":807,"청":808,"체":809,"첼":810,"쳐":811,"쳤":812,"초":813,"촉":814,"촌":815,"총":816,"촬":817,"최":818,"추":819,"축":820,"춘":821,"출":822,"춤":823,"충":824,"취":825,"츠":826,"측":827,"층":828,"치":829,"칙":830,"친":831,"칠":832,"침":833,"칭":834,"카":835,"칸":836,"칼":837,"캄":838,"캐":839,"캔":840,"캘":841,"캠":842,"커":843,"컨":844,"컬":845,"컴":846,"컵":847,"컷":848,"케":849,"켄":850,"켈":851,"켓":852,"켜":853,"켰":854,"코":855,"콘":856,"콜":857,"콤":858,"콩":859,"쾌":860,"쿄":861,"쿠":862,"쿨":863,"퀴":864,"큐":865,"크":866,"큰":867,"클":868,"큼":869,"키":870,"킨":871,"킬":872,"킹":873,"타":874,"탁":875,"탄":876,"탈":877,"탐":878,"탑":879,"탕":880,"태":881,"택":882,"탱":883,"터":884,"턴":885,"털":886,"테":887,"텍":888,"텐":889,"텔":890,"템":891,"토":892,"톤":893,"톨":894,"톰":895,"톱":896,"통":897,"퇴":898,"투":899,"튀":900,"튜":901,"트":902,"특":903,"튼":904,"틀":905,"티":906,"틱":907,"틴":908,"틸":909,"팀":910,"팅":911,"파":912,"판":913,"팔":914,"팝":915,"패":916,"팩":917,"팬":918,"팽":919,"퍼":920,"페":921,"펜":922,"펠":923,"편":924,"펼":925,"평":926,"폐":927,"포":928,"폭":929,"폰":930,"폴":931,"폼":932,"표":933,"푸":934,"풀":935,"품":936,"풍":937,"퓨":938,"프":939,"픈":940,"플":941,"피":942,"픽":943,"핀":944,"필":945,"핑":946,"하":947,"학":948,"한":949,"할":950,"함":951,"합":952,"항":953,"해":954,"핵":955,"했":956,"행":957,"향":958,"허":959,"헌":960,"험":961,"헝":962,"헤":963,"헨":964,"헬":965,"혀":966,"혁":967,"현":968,"혈":969,"혐":970,"협":971,"혔":972,"형":973,"혜":974,"호":975,"혹":976,"혼":977,"홀":978,"홈":979,"홍":980,"화":981,"확":982,"환":983,"활":984,"황":985,"회":986,"획":987,"횡":988,"효":989,"후":990,"훈":991,"훨":992,"휘":993,"휴":994,"흐":995,"흑":996,"흔":997,"흘":998,"흡":999,"흥":1000,"희":1001,"흰":1002,"히":1003,"힌":1004,"힐":1005,"힘":1006,"는</w>":1007,"의</w>":1008,"당</w>":1009,"오</w>":1010,"고</w>":1011,"기</w>":1012,"에</w>":1013,"V</w>":1014,"5</w>":1015,"다</w>":1016,"로</w>":1017,"가</w>":1018,"와</w>":1019,"년</w>":1020,"지</w>":1021,"대</w>":1022,"한</w>":1023,"회</w>":1024,"노</w>":1025,"단</w>":1026,"남</w>":1027,"던</w>":1028,"를</w>":1029,"서</w>":1030,"벌</w>":1031,"은</w>":1032,"티</w>":1033,"을</w>":1034,"며</w>":1035,"프</w>":1036,"업</w>":1037,"이</w>":1038,"해</w>":1039,"어</w>":1040,"방</w>":1041,"e</w>":1042,"무</w>":1043,"자</w>":1044,"데</w>":1045,"결</w>":1046,"i</w>":1047,"터</w>":1048,"물</w>":1049,"과</w>":1050,"철</w>":1051,"택</w>":1052,"들</w>":1053,"규</w>":1054,"보</w>":1055,"룡</w>":1056,"도</w>":1057,"타</w>":1058,"만</w>":1059,"2</w>":1060,"트</w>":1061,"리</w>":1062,"나</w>":1063,"스</w>":1064,"후</w>":1065,"공</w>":1066,"록</w>":1067,"종</w>":1068,"성</w>":1069,"D</w>":1070,"심</w>":1071,"7</w>":1072,"설</w>":1073,"s</w>":1074,"줄</w>":1075,"야</w>":1076,"0</w>":1077,"츠</w>":1078,"청</w>":1079,"a</w>":1080,"인</w>":1081,"팀</w>":1082,"전</w>":1083,"시</w>":1084,"니</w>":1085,"부</w>":1086,"샤</w>":1087,"T</w>":1088,"라</w>":1089,"요</w>":1090,"긴</w>":1091,"룩</w>":1092,"제</w>":1093,"크</w>":1094,"불</w>":1095,"J</w>":1096,"균</w>":1097,"켄</w>":1098,"d</w>":1099,"m</w>":1100,"면</w>":1101,"턴</w>":1102,"동</w>":1103,"국</w>":1104,"교</w>":1105,"백</w>":1106,"측</w>":1107,"축</w>":1108,"실</w>":1109,"군</w>":1110,"집</w>":1111,"차</w>":1112,"R</w>":1113,"석</w>":1114,"류</w>":1115,"B</w>":1116,"세</w>":1117,"징</w>":1118,"정</w>":1119,"러</w>":1120,"안</w>":1121,"완</w>":1122,"n</w>":1123,"량</w>":1124,"써</w>":1125,"할</w>":1126,"치</w>":1127,"게</w>":1128,"질</w>":1129,"o</w>":1130,"현</w>":1131,"K</w>":1132,"럼</w>":1133,"위</w>":1134,"범</w>":1135,"왕</w>":1136,"털</w>":1137,"중</w>":1138,"술</w>":1139,"사</w>":1140,"섭</w>":1141,"화</w>":1142,"U</w>":1143,"조</w>":1144,"까</w>":1145,"원</w>":1146,"염</w>":1147,"편</w>":1148,"비</w>":1149,"일</w>":1150,"링</w>":1151,"블</w>":1152,"란</w>":1153,"장</w>":1154,"피</w>":1155,"영</w>":1156,"z</w>":1157,"경</w>":1158,"옹</w>":1159,"수</w>":1160,"드</w>":1161,"억</w>":1162,"럽</w>":1163,"우</w>":1164,"호</w>":1165,"액</w>":1166,"희</w>":1167,"g</w>":1168,"E</w>":1169,"진</w>":1170,"판</w>":1171,"압</w>":1172,"승</w>":1173,"음</w>":1174,"립</w>":1175,"웅</w>":1176,"미</w>":1177,"런</w>":1178,"t</w>":1179,"하</w>":1180,"c</w>":1181,"료</w>":1182,"삼</w>":1183,"짝</w>":1184,"온</w>":1185,"구</w>":1186,"루</w>":1187,"생</w>":1188,"병</w>":1189,"키</w>":1190,"목</w>":1191,"상</w>":1192,"항</w>":1193,"길</w>":1194,"막</w>":1195,"l</w>":1196,"r</w>":1197,"k</w>":1198,"식</w>":1199,"변</w>":1200,"퍼</w>":1201,"A</w>":1202,"답</w>":1203,"품</w>":1204,"려</w>":1205,"혈</w>":1206,"마</w>":1207,"코</w>":1208,"주</w>":1209,"여</w>":1210,"즈</w>":1211,"행</w>":1212,"률</w>":1213,"w</w>":1214,"6</w>":1215,"적</w>":1216,"풍</w>":1217,"형</w>":1218,"셔</w>":1219,"봉</w>":1220,"f</w>":1221,"켈</w>":1222,"극</w>":1223,"y</w>":1224,"간</w>":1225,"쥐</w>":1226,"됨</w>":1227,"평</w>":1228,"테</w>":1229,"본</w>":1230,"I</w>":1231,"반</w>":1232,"골</w>":1233,"븐</w>":1234,"령</w>":1235,"1</w>":1236,"엔</w>":1237,"득</w>":1238,"급</w>":1239,"선</w>":1240,"발</w>":1241,"째</w>":1242,"쟁</w>":1243,"역</w>":1244,"신</w>":1245,"천</w>":1246,"h</w>":1247,"N</w>":1248,"빌</w>":1249,"얀</w>":1250,"브</w>":1251,"겐</w>":1252,"뤼</w>":1253,"녕</w>":1254,"j</w>":1255,"플</w>":1256,"족</w>":1257,"래</w>":1258,"뱅</w>":1259,"복</w>":1260,"함</w>":1261,"법</w>":1262,"소</w>":1263,"옥</w>":1264,"G</w>":1265,"합</w>":1266,"학</w>":1267,"감</w>":1268,"련</w>":1269,"명</w>":1270,"H</w>":1271,"포</w>":1272,"x</w>":1273,"콜</w>":1274,"레</w>":1275,"거</w>":1276,"F</w>":1277,"울</w>":1278,"론</w>":1279,"씩</w>":1280,"누</w>":1281,"될</w>":1282,"계</w>":1283,"딩</w>":1284,"닛</w>":1285,"폭</w>":1286,"배</w>":1287,"돼</w>":1288,"르</w>":1289,"아</w>":1290,"램</w>":1291,"육</w>":1292,"8</w>":1293,"P</w>":1294,"케</w>":1295,"X</w>":1296,"4</w>":1297,"윤</w>":1298,"및</w>":1299,"번</w>":1300,"그</w>":1301,"출</w>":1302,"망</w>":1303,"템</w>":1304,"콘</w>":1305,"바</w>":1306,"파</w>":1307,"민</w>":1308,"카</w>":1309,"W</w>":1310,"때</w>":1311,"산</w>":1312,"용</w>":1313,"관</w>":1314,"C</w>":1315,"롱</w>":1316,"텔</w>":1317,"침</w>":1318,"례</w>":1319,"촌</w>":1320,"열</w>":1321,"랑</w>":1322,"밖</w>":1323,"네</w>":1324,"녀</w>":1325,"넷</w>":1326,"롭</w>":1327,"력</w>":1328,"표</w>":1329,"헨</w>":1330,"건</w>":1331,"O</w>":1332,"큼</w>":1333,"율</w>":1334,"u</w>":1335,"워</w>":1336,"늄</w>":1337,"3</w>":1338,"암</w>":1339,"붕</w>":1340,"작</w>":1341,"클</w>":1342,"든</w>":1343,"9</w>":1344,"증</w>":1345,"향</w>":1346,"탄</w>":1347,"릉</w>":1348,"융</w>":1349,"분</w>":1350,"람</w>":1351,"토</w>":1352,"맨</w>":1353,"체</w>":1354,"락</w>":1355,"혼</w>":1356,"속</w>":1357,"닥</w>":1358,"입</w>":1359,"즘</w>":1360,"S</w>":1361,"곤</w>":1362,"켜</w>":1363,"움</w>":1364,"창</w>":1365,"임</w>":1366,"홈</w>":1367,"절</w>":1368,"톱</w>":1369,"곡</w>":1370,"슬</w>":1371,"렬</w>":1372,"착</w>":1373,"M</w>":1374,"솔</w>":1375,"투</w>":1376,"권</w>":1377,"히</w>":1378,"운</w>":1379,"널</w>":1380,"강</w>":1381,"양</w>":1382,"팔</w>":1383,"등</w>":1384,"처</w>":1385,"월</w>":1386,"곽</w>":1387,"찬</w>":1388,"릿</w>":1389,"버</w>":1390,"념</w>":1391,"되</w>":1392,"Y</w>":1393,"채</w>":1394,"린</w>":1395,"져</w>":1396,"문</w>":1397,"쌍</w>":1398,"금</w>":1399,"험</w>":1400,"참</w>":1401,"뿐</w>":1402,"통</w>":1403,"내</w>":1404,"순</w>":1405,"릴</w>":1406,"연</w>":1407,"닌</w>":1408,"약</w>":1409,"톤</w>":1410,"개</w>":1411,"탑</w>":1412,"덕</w>":1413,"읍</w>":1414,"저</w>":1415,"별</w>":1416,"밑</w>":1417,"첼</w>":1418,"궁</w>":1419,"준</w>":1420,"컬</w>":1421,"커</w>":1422,"척</w>":1423,"p</w>":1424,"획</w>":1425,"v</w>":1426,"각</w>":1427,"허</w>":1428,"끝</w>":1429,"킬</w>":1430,"디</w>":1431,"괴</w>":1432,"격</w>":1433,"십</w>":1434,"검</w>":1435,"킨</w>":1436,"션</w>":1437,"쇼</w>":1438,"것</w>":1439,"센</w>":1440,"된</w>":1441,"탕</w>":1442,"밀</w>":1443,"른</w>":1444,"살</w>":1445,"빈</w>":1446,"유</w>":1447,"랍</w>":1448,"태</w>":1449,"칸</w>":1450,"섬</w>":1451,"곳</w>":1452,"페</w>":1453,"둔</w>":1454,"예</w>":1455,"앵</w>":1456,"재</w>":1457,"둥</w>":1458,"혁</w>":1459,"말</w>":1460,"잎</w>":1461,"근</w>":1462,"담</w>":1463,"손</w>":1464,"델</w>":1465,"새</w>":1466,"박</w>":1467,"황</w>":1468,"핵</w>":1469,"필</w>":1470,"꽃</w>":1471,"초</w>":1472,"색</w>":1473,"듯</w>":1474,"릭</w>":1475,"칙</w>":1476,"모</w>":1477,"송</w>":1478,"엘</w>":1479,"냐</w>":1480,"쾌</w>":1481,"름</w>":1482,"섯</w>":1483,"존</w>":1484,"b</w>":1485,"볼</w>":1486,"옌</w>":1487,"언</w>":1488,"픽</w>":1489,"악</w>":1490,"환</w>":1491,"휴</w>":1492,"첩</w>":1493,"씨</w>":1494,"훈</w>":1495,"애</w>":1496,"컵</w>":1497,"귀</w>":1498,"슈</w>":1499,"軍</w>":1500,"é</w>":1501,"숲</w>":1502,"웨</w>":1503,"톨</w>":1504,"굴</w>":1505,"묘</w>":1506,"쓰</w>":1507,"쉬</w>":1508,"벡</w>":1509,"텍</w>":1510,"께</w>":1511,"직</w>":1512,"캔</w>":1513,"매</w>":1514,"머</w>":1515,"광</w>":1516,"탈</w>":1517,"멕</w>":1518,"딘</w>":1519,"겸</w>":1520,"풀</w>":1521,"튼</w>":1522,"틴</w>":1523,"날</w>":1524,"슨</w>":1525,"패</w>":1526,"객</w>":1527,"쳐</w>":1528,"잉</w>":1529,"더</w>":1530,"쿠</w>":1531,"낼</w>":1532,"넬</w>":1533,"빙</w>":1534,"맹</w>":1535,"뱀</w>":1536,"L</w>":1537,"∼</w>":1538,"좌</w>":1539,"앙</w>":1540,"친</w>":1541,"님</w>":1542,"촉</w>":1543,"칼</w>":1544,"닝</w>":1545,"틱</w>":1546,"총</w>":1547,"먼</w>":1548,"낸</w>":1549,"두</w>":1550,"끼</w>":1551,"베</w>":1552,"림</w>":1553,"킹</w>":1554,"럴</w>":1555,"찰</w>":1556,"롤</w>":1557,"혜</w>":1558,"점</w>":1559,"습</w>":1560,"닉</w>":1561,"익</w>":1562,"얼</w>":1563,"롯</w>":1564,"홍</w>":1565,"엽</w>":1566,"콤</w>":1567,"Q</w>":1568,"값</w>":1569,"뉴</w>":1570,"쿨</w>":1571,"올</w>":1572,"핑</w>":1573,"메</w>":1574,"룹</w>":1575,"너</w>":1576,"넘</w>":1577,"핀</w>":1578,"셀</w>":1579,"뜨</w>":1580,"알</w>":1581,"컨</w>":1582,"달</w>":1583,"뇌</w>":1584,"퇴</w>":1585,"흐</w>":1586,"뼈</w>":1587,"셜</w>":1588,"펜</w>":1589,"걸</w>":1590,"밍</w>":1591,"끄</w>":1592,"렉</w>":1593,"퀴</w>":1594,"틸</w>":1595,"겨</w>":1596,"춤</w>":1597,"김</w>":1598,"랫</w>":1599,"듀</w>":1600,"쇄</w>":1601,"멜</w>":1602,"꾸</w>":1603,"國</w>":1604,"춘</w>":1605,"뷰</w>":1606,"젤</w>":1607,"궤</w>":1608,"맥</w>":1609,"난</w>":1610,"짐</w>":1611,"틀</w>":1612,"탁</w>":1613,"륜</w>":1614,"Z</w>":1615,"졸</w>":1616,"책</w>":1617,"벨</w>":1618,"갈</w>":1619,"뒤</w>":1620,"둘</w>":1621,"폐</w>":1622,"돈</w>":1623,"즌</w>":1624,"쿄</w>":1625,"헌</w>":1626,"빛</w>":1627,"앤</w>":1628,"팅</w>":1629,"싱</w>":1630,"삭</w>":1631,"즉</w>":1632,"죽</w>":1633,"외</w>":1634,"짜</w>":1635,"밥</w>":1636,"웰</w>":1637,"렴</w>":1638,"협</w>":1639,"독</w>":1640,"죄</w>":1641,"효</w>":1642,"힌</w>":1643,"견</w>":1644,"응</w>":1645,"느</w>":1646,"충</w>":1647,"륨</w>":1648,"논</w>":1649,"앞</w>":1650,"욱</w>":1651,"렐</w>":1652,"팩</w>":1653,"농</w>":1654,"렌</w>":1655,"칠</w>":1656,"젠</w>":1657,"댄</w>":1658,"추</w>":1659,"켓</w>":1660,"륙</w>":1661,"략</w>":1662,"뢰</w>":1663,"봄</w>":1664,"폴</w>":1665,"q</w>":1666,"힐</w>":1667,"괄</w>":1668,"웠</w>":1669,"벽</w>":1670,"잘</w>":1671,"북</w>":1672,"쪽</w>":1673,"캄</w>":1674,"쇠</w>":1675,"홀</w>":1676,"숙</w>":1677,"팬</w>":1678,"층</w>":1679,"최</w>":1680,"잭</w>":1681,"샘</w>":1682,"찌</w>":1683,"벤</w>":1684,"럭</w>":1685,"냥</w>":1686,"랭</w>":1687,"탱</w>":1688,"몬</w>":1689,"흥</w>":1690,"멸</w>":1691,"맛</w>":1692,"윈</w>":1693,"밤</w>":1694,"므</w>":1695,"롬</w>":1696,"취</w>":1697,"즐</w>":1698,"잔</w>":1699,"특</w>":1700,"능</w>":1701,"흔</w>":1702,"활</w>":1703,"칭</w>":1704,"옆</w>":1705,"랄</w>":1706,"늘</w>":1707,"엠</w>":1708,"빅</w>":1709,"욕</w>":1710,"갑</w>":1711,"몰</w>":1712,"엄</w>":1713,"폰</w>":1714,"옷</w>":1715,"텐</w>":1716,"컴</w>":1717,"픈</w>":1718,"따</w>":1719,"눈</w>":1720,"멘</w>":1721,"짓</w>":1722,"탐</w>":1723,"헬</w>":1724,"웃</w>":1725,"흘</w>":1726,"푸</w>":1727,"앗</w>":1728,"첨</w>":1729,"쓴</w>":1730,"셋</w>":1731,"덴</w>":1732,"낮</w>":1733,"랙</w>":1734,"낭</w>":1735,"글</w>":1736,"휘</w>":1737,"접</w>":1738,"헤</w>":1739,"놀</w>":1740,"빨</w>":1741,"몽</w>":1742,"었</w>":1743,"닐</w>":1744,"늬</w>":1745,"숭</w>":1746,"돌</w>":1747,"확</w>":1748,"묵</w>":1749,"했</w>":1750,"잇</w>":1751,"깔</w>":1752,"혀</w>":1753,"엇</w>":1754,"톰</w>":1755,"잠</w>":1756,"팝</w>":1757,"멀</w>":1758,"으</w>":1759,"않</w>":1760,"씬</w>":1761,"펠</w>":1762,"콩</w>":1763,"띠</w>":1764,"였</w>":1765,"렸</w>":1766,"랜</w>":1767,"슴</w>":1768,"쉽</w>":1769,"갖</w>":1770,"룬</w>":1771,"컷</w>":1772,"힘</w>":1773,"폼</w>":1774,"촬</w>":1775,"녹</w>":1776,"왜</w>":1777,"둑</w>":1778,"믹</w>":1779,"덤</w>":1780,"셈</w>":1781,"낙</w>":1782,"뷔</w>":1783,"싸</w>":1784,"못</w>":1785,"윌</w>":1786,"큰</w>":1787,"납</w>":1788,"옛</w>":1789,"꼬</w>":1790,"찍</w>":1791,"젝</w>":1792,"뤄</w>":1793,"엑</w>":1794,"땅</w>":1795,"흰</w>":1796,"또</w>":1797,"훨</w>":1798,"잡</w>":1799,"숫</w>":1800,"큐</w>":1801,"딸</w>":1802,"좀</w>":1803,"첫</w>":1804,"캐</w>":1805,"듬</w>":1806,"꿈</w>":1807,"끌</w>":1808,"뛰</w>":1809,"몇</w>":1810,"덩</w>":1811,"곱</w>":1812,"셰</w>":1813,"흡</w>":1814,"뉘</w>":1815,"덜</w>":1816,"書</w>":1817,"먹</w>":1818,"밴</w>":1819,"빠</w>":1820,"횡</w>":1821,"떤</w>":1822,"혹</w>":1823,"쓸</w>":1824,"겠</w>":1825,"뮤</w>":1826,"꼭</w>":1827,"퓨</w>":1828,"놓</w>":1829,"튜</w>":1830,"렇</w>":1831,"깨</w>":1832,"-</w>":1833,"벗</w>":1834,"났</w>":1835,"몸</w>":1836,"웹</w>":1837,"팽</w>":1838,"뿌</w>":1839,"쳤</w>":1840,"떨</w>":1841,"떠</w>":1842,"렵</w>":1843,"숨</w>":1844,"빼</w>":1845,"벼</w>":1846,"튀</w>":1847,"흑</w>":1848,"냉</w>":1849,"&</w>":1850,"샌</w>":1851,"學</w>":1852,"챔</w>":1853,"明</w>":1854,"곧</w>":1855,"뀌</w>":1856,"公</w>":1857,"넓</w>":1858,"平</w>":1859,",</w>":1860,"꼽</w>":1861,"슷</w>":1862,"삶</w>":1863,":</w>":1864,"道</w>":1865,"캠</w>":1866,"았</w>":1867,"붉</w>":1868,"長</w>":1869,"믿</w>":1870,"德</w>":1871,"왔</w>":1872,"뜻</w>":1873,"’</w>":1874,"西</w>":1875,"!</w>":1876,"『</w>":1877,"正</w>":1878,"싶</w>":1879,"밝</w>":1880,"받</w>":1881,"찾</w>":1882,"王</w>":1883,"맞</w>":1884,"랐</w>":1885,"없</w>":1886,"됐</w>":1887,"졌</w>":1888,"꺼</w>":1889,"義</w>":1890,"좋</w>":1891,"혐</w>":1892,"太</w>":1893,"캘</w>":1894,"使</w>":1895,"있</w>":1896,"陽</w>":1897,"헝</w>":1898,"|</w>":1899,"法</w>":1900,"썼</w>":1901,"?</w>":1902,".</w>":1903,"〈</w>":1904,"왼</w>":1905,"宗</w>":1906,";</w>":1907,"寺</w>":1908,"安</w>":1909,"렀</w>":1910,"섰</w>":1911,"듣</w>":1912,"넣</w>":1913,"氏</w>":1914,"닫</w>":1915,"人</w>":1916,"%</w>":1917,"君</w>":1918,"켰</w>":1919,"<</w>":1920,"펼</w>":1921,"光</w>":1922,"元</w>":1923,"』</w>":1924,"(</w>":1925,"혔</w>":1926,"잃</w>":1927,"城</w>":1928,"校</w>":1929,"南</w>":1930,"옮</w>":1931,"앨</w>":1932,"냈</w>":1933,"石</w>":1934,"成</w>":1935,"一</w>":1936,"[</w>":1937,"郡</w>":1938,"天</w>":1939,"맡</w>":1940,"뒷</w>":1941,"–</w>":1942,"읽</w>":1943,"會</w>":1944,"·</w>":1945,"]</w>":1946,"뽑</w>":1947,"멤</w>":1948,"”</w>":1949,"子</w>":1950,"=</w>":1951,"같</w>":1952,"늦</w>":1953,"東</w>":1954,"많</w>":1955,"李</w>":1956,"《</w>":1957,"中</w>":1958,"川</w>":1959,"》</w>":1960,"+</w>":1961,"大</w>":1962,"묻</w>":1963,"上</w>":1964,"文</w>":1965,"高</w>":1966,"〉</w>":1967,"_</w>":1968,"겼</w>":1969,"三</w>":1970,"떻</w>":1971,"갔</w>":1972,"」</w>":1973,"府</w>":1974,"原</w>":1975,"얻</w>":1976,"・</w>":1977,"‘</w>":1978,"事</w>":1979,"높</w>":1980,"'</w>":1981,"山</w>":1982,"/</w>":1983,"덮</w>":1984,"></w>":1985,"붙</w>":1986,"「</w>":1987,"~</w>":1988,"앉</w>":1989,"金</w>":1990,"州</w>":1991,"院</w>":1992,"海</w>":1993,"地</w>":1994,"“</w>":1995,")</w>":1996,"\"</w>":1997,"으로</w>":1998,"에서</w>":1999,"이다</w>":2000,"19":2001,"20":2002,"었다</w>":2003,"하였":2004,"있다</w>":2005,"했다</w>":2006,"하는</w>":2007,"하고</w>":2008,"하였다</w>":2009,"한다</w>":2010,"되었다</w>":2011,"하여</w>":2012,"으며</w>":2013,"에는</w>":2014,"201":2015,"200":2016,"있는</w>":2017,"에서":2018,"부터</w>":2019,"지만</w>":2020,"10":2021,"되어</w>":2022,"적인</w>":2023,"국의</w>":2024,"된다</w>":2025,"되었":2026,"에게</w>":2027,"까지</w>":2028,"적으로</w>":2029,"라는</w>":2030,"18":2031,"으로":2032,"에서는</w>":2033,"는데</w>":2034,"라고</w>":2035,"사용":2036,"들은</w>":2037,"면서</w>":2038,"199":2039,"하게</w>":2040,"다고</w>":2041,"년에</w>":2042,"들이</w>":2043,"or":2044,"00":2045,"12":2046,"대한":2047,"다는</w>":2048,"으나</w>":2049,"기도</w>":2050,"그는</w>":2051,"대한</w>":2052,"8년</w>":2053,"대한민":2054,"4년</w>":2055,"았다</w>":2056,"5년</w>":2057,"6년</w>":2058,"7년</w>":2059,"2년</w>":2060,"다른</w>":2061,"이며</w>":2062,"11":2063,"이후</w>":2064,"같은</w>":2065,"3년</w>":2066,"하며</w>":2067,"그리":2068,"1년</w>":2069,"198":2070,"0년</w>":2071,"때문":2072,"들의</w>":2073,"들을</w>":2074,"프로":2075,"지역":2076,"시작":2077,"다음":2078,"그러":2079,"하기</w>":2080,"학교</w>":2081,"이는</w>":2082,"되는</w>":2083,"또한</w>":2084,"9년</w>":2085,"스트":2086,"위해</w>":2087,"함께</w>":2088,"그의</w>":2089,"ul":2090,"사람":2091,"레이":2092,"사이":2093,"15":2094,"자신":2095,"하지</w>":2096,"학교":2097,"것을</w>":2098,"er":2099,"일본":2100,"in":2101,"위치":2102,"에도</w>":2103,"지는</w>":2104,"16":2105,"an":2106,"라이":2107,"197":2108,"경기":2109,"for":2110,"때문에</w>":2111,"이름":2112,"기록":2113,"또는</w>":2114,"17":2115,"그러나</w>":2116,"되고</w>":2117,"form":2118,"ula</w>":2119,"가장</w>":2120,"이나</w>":2121,"formula</w>":2122,"있으며</w>":2123,"스의</w>":2124,"선수":2125,"하나":2126,"들어":2127,"196":2128,"ar":2129,"많은</w>":2130,"것으로</w>":2131,"프랑":2132,"개의</w>":2133,"일에</w>":2134,"기를</w>":2135,"리는</w>":2136,"따라</w>":2137,"였다</w>":2138,"그리고</w>":2139,"하다</w>":2140,"활동":2141,"있었다</w>":2142,"이었다</w>":2143,"것은</w>":2144,"아니":2145,"기에</w>":2146,"한국":2147,"14":2148,"국가":2149,"하였고</w>":2150,"있었":2151,"당시</w>":2152,"의해</w>":2153,"미국</w>":2154,"이라고</w>":2155,"일본</w>":2156,"영화":2157,"했고</w>":2158,"것이다</w>":2159,"194":2160,"이라는</w>":2161,"ti":2162,"부분":2163,"하면서</w>":2164,"통해</w>":2165,"대표":2166,"리를</w>":2167,"조선":2168,"en":2169,"리아":2170,"on":2171,"졌다</w>":2172,"것이</w>":2173,"다가</w>":2174,"가지":2175,"13":2176,"스는</w>":2177,"다음과</w>":2178,"연구":2179,"주의</w>":2180,"다시</w>":2181,"0년":2182,"이고</w>":2183,"대한민국의</w>":2184,"상을</w>":2185,"이었":2186,"주의":2187,"195":2188,"하지만</w>":2189,"해서</w>":2190,"사회":2191,"이를</w>":2192,"사를</w>":2193,"리아</w>":2194,"포함":2195,"성을</w>":2196,"번째</w>":2197,"정부":2198,"대로</w>":2199,"등이</w>":2200,"되었고</w>":2201,"12월</w>":2202,"문화":2203,"3월</w>":2204,"on</w>":2205,"8월</w>":2206,"10월</w>":2207,"등의</w>":2208,"장을</w>":2209,"4월</w>":2210,"7월</w>":2211,"위원":2212,"위한</w>":2213,"현재</w>":2214,"위를</w>":2215,"모든</w>":2216,"보다</w>":2217,"이러":2218,"는다</w>":2219,"동안</w>":2220,"이루":2221,"5월</w>":2222,"가능":2223,"지를</w>":2224,"1월</w>":2225,"아이":2226,"9월</w>":2227,"알려":2228,"시에</w>":2229,"여러</w>":2230,"6월</w>":2231,"세계":2232,"대의</w>":2233,"리그</w>":2234,"er</w>":2235,"모두</w>":2236,"공화":2237,"도시":2238,"자가</w>":2239,"명의</w>":2240,"도의</w>":2241,"등을</w>":2242,"서울":2243,"193":2244,"11월</w>":2245,"했으며</w>":2246,"이용":2247,"자신의</w>":2248,"하면</w>":2249,"력을</w>":2250,"구성":2251,"으로는</w>":2252,"존재":2253,"문제":2254,"나타":2255,"거나</w>":2256,"시아":2257,"30":2258,"경우":2259,"제작":2260,"경우</w>":2261,"프리":2262,"나라":2263,"로서</w>":2264,"민주":2265,"스타":2266,"이자</w>":2267,"정치":2268,"대한민국</w>":2269,"미국의</w>":2270,"감독":2271,"났다</w>":2272,"기의</w>":2273,"2월</w>":2274,"같다</w>":2275,"서는</w>":2276,"이에</w>":2277,"중심":2278,"군의</w>":2279,"리에</w>":2280,"이러한</w>":2281,"전에</w>":2282,"하였으며</w>":2283,"방송":2284,"주로</w>":2285,"1일</w>":2286,"시아</w>":2287,"태어":2288,"메이":2289,"운동":2290,"미국":2291,"시키":2292,"자는</w>":2293,"개발":2294,"로는</w>":2295,"발견":2296,"로운</w>":2297,"년에는</w>":2298,"대해</w>":2299,"al":2300,"기는</w>":2301,"관계":2302,"도록</w>":2303,"주장":2304,"되었으며</w>":2305,"위치한</w>":2306,"받았다</w>":2307,"작품":2308,"세계</w>":2309,"자의</w>":2310,"25":2311,"ic":2312,"년부터</w>":2313,"대통":2314,"도로</w>":2315,"일반":2316,"발표":2317,"지방":2318,"현재":2319,"로부터</w>":2320,"의미":2321,"스를</w>":2322,"기가</w>":2323,"축구</w>":2324,"월에</w>":2325,"에서도</w>":2326,"상의</w>":2327,"프로그":2328,"대학":2329,"re":2330,"배우":2331,"st":2332,"기로</w>":2333,"이어":2334,"교육":2335,"정을</w>":2336,"영향":2337,"공격":2338,"사가</w>":2339,"at":2340,"리가</w>":2341,"초등":2342,"했던</w>":2343,"자를</w>":2344,"대에</w>":2345,"특히</w>":2346,"고등":2347,"일어":2348,"요한</w>":2349,"제2":2350,"들과</w>":2351,"같이</w>":2352,"아버":2353,"he</w>":2354,"간의</w>":2355,"드의</w>":2356,"도를</w>":2357,"인의</w>":2358,"대회":2359,"올림":2360,"전쟁":2361,"사는</w>":2362,"영화</w>":2363,"참여":2364,"선거":2365,"기술":2366,"와의</w>":2367,"스가</w>":2368,"스트</w>":2369,"대를</w>":2370,"다양":2371,"성이</w>":2372,"과의</w>":2373,"it":2374,"리의</w>":2375,"지의</w>":2376,"사망":2377,"이후":2378,"있고</w>":2379,"지원":2380,"그녀":2381,"타이":2382,"드라":2383,"인구":2384,"부르":2385,"드는</w>":2386,"형태":2387,"최초":2388,"특별":2389,"역시</w>":2390,"되지</w>":2391,"이탈":2392,"새로운</w>":2393,"독일":2394,"192":2395,"시간":2396,"설치":2397,"명을</w>":2398,"만들":2399,"발생":2400,"ou":2401,"시의</w>":2402,"사건":2403,"있던</w>":2404,"el":2405,"진행":2406,"렸다</w>":2407,"시스":2408,"생각":2409,"도는</w>":2410,"인해</w>":2411,"수는</w>":2412,"상태":2413,"므로</w>":2414,"ol":2415,"우승":2416,"설립":2417,"이루어":2418,"없는</w>":2419,"식을</w>":2420,"하기도</w>":2421,"전투":2422,"데이":2423,"진다</w>":2424,"위에</w>":2425,"사의</w>":2426,"2010년</w>":2427,"자로</w>":2428,"가지</w>":2429,"구조":2430,"인민":2431,"중앙":2432,"선의</w>":2433,"이라</w>":2434,"성공":2435,"다음</w>":2436,"수가</w>":2437,"들에게</w>":2438,"제공":2439,"24":2440,"돌아":2441,"000":2442,"처음":2443,"시즌":2444,"경제":2445,"게임":2446,"발매":2447,"가는</w>":2448,"매우</w>":2449,"베이":2450,"결정":2451,"음악":2452,"대학교</w>":2453,"아들":2454,"사실":2455,"하자</w>":2456,"자유":2457,"명이</w>":2458,"랜드</w>":2459,"전을</w>":2460,"지정":2461,"일본의</w>":2462,"23":2463,"km</w>":2464,"처럼</w>":2465,"등장":2466,"시리":2467,"독립":2468,"세기</w>":2469,"년까지</w>":2470,"가리":2471,"나는</w>":2472,"참가":2473,"al</w>":2474,"ac":2475,"가지고</w>":2476,"il":2477,"마이":2478,"아니라</w>":2479,"수를</w>":2480,"따르":2481,"22":2482,"회의":2483,"군은</w>":2484,"역사":2485,"기관":2486,"시즌</w>":2487,"기원":2488,"인이</w>":2489,"스페":2490,"부의</w>":2491,"대부분":2492,"점을</w>":2493,"ro":2494,"도가</w>":2495,"차지":2496,"에서의</w>":2497,"따라":2498,"성의</w>":2499,"중에</w>":2500,"수의</w>":2501,"중국</w>":2502,"배우</w>":2503,"없다</w>":2504,"an</w>":2505,"조직":2506,"거의</w>":2507,"국민":2508,"했지만</w>":2509,"있어</w>":2510,"26":2511,"왔다</w>":2512,"28":2513,"베르":2514,"생산":2515,"계획":2516,"스와</w>":2517,"장이</w>":2518,"권을</w>":2519,"27":2520,"하던</w>":2521,"가운":2522,"회의</w>":2523,"결국</w>":2524,"으로서</w>":2525,"않고</w>":2526,"않았다</w>":2527,"이라":2528,"프랑스</w>":2529,"많이</w>":2530,"냈다</w>":2531,"방법":2532,"is":2533,"후에</w>":2534,"이어</w>":2535,"화를</w>":2536,"es</w>":2537,"중국":2538,"190":2539,"출연":2540,"2008년</w>":2541,"내용":2542,"인터":2543,"2011년</w>":2544,"브라":2545,"기준":2546,"적은</w>":2547,"사업":2548,"부에</w>":2549,"정보":2550,"떨어":2551,"이유":2552,"바이":2553,"om":2554,"원을</w>":2555,"주는</w>":2556,"일부</w>":2557,"음을</w>":2558,"대통령":2559,"제1":2560,"장은</w>":2561,"나이":2562,"운영":2563,"일부터</w>":2564,"으로써</w>":2565,"없이</w>":2566,"만들어":2567,"한편</w>":2568,"2012년</w>":2569,"되면서</w>":2570,"am":2571,"프로그램":2572,"니아":2573,"다양한</w>":2574,"생활":2575,"FA</w>":2576,"지가</w>":2577,"과정":2578,"이르":2579,"역할":2580,"서로</w>":2581,"2014년</w>":2582,"부를</w>":2583,"2007년</w>":2584,"2009년</w>":2585,"작은</w>":2586,"대학교":2587,"남도</w>":2588,"과학":2589,"ati":2590,"스크":2591,"어서</w>":2592,"마지":2593,"29":2594,"50":2595,"아르":2596,"주요</w>":2597,"에게":2598,"했으나</w>":2599,"19년</w>":2600,"않았":2601,"영국</w>":2602,"물을</w>":2603,"km":2604,"유명":2605,"그가</w>":2606,"이야":2607,"장으로</w>":2608,"였던</w>":2609,"모습":2610,"출신":2611,"평가":2612,"관련":2613,"as":2614,"경상":2615,"인다</w>":2616,"됐다</w>":2617,"이름을</w>":2618,"시켰":2619,"하는데</w>":2620,"es":2621,"지에</w>":2622,"ch":2623,"배우이다</w>":2624,"리스":2625,"지역</w>":2626,"사로</w>":2627,"하였으나</w>":2628,"대학</w>":2629,"텔레":2630,"일을</w>":2631,"쪽으로</w>":2632,"표현":2633,"소속":2634,"높은</w>":2635,"케이":2636,"결과":2637,"영향을</w>":2638,"2013년</w>":2639,"ri":2640,"후보":2641,"따라서</w>":2642,"국제":2643,"문을</w>":2644,"필요":2645,"크로":2646,"받아</w>":2647,"부는</w>":2648,"영국":2649,"원의</w>":2650,"기업":2651,"두고</w>":2652,"임명":2653,"선을</w>":2654,"오스트":2655,"군이</w>":2656,"으로부터</w>":2657,"지고</w>":2658,"고도</w>":2659,"따르면</w>":2660,"of</w>":2661,"력이</w>":2662,"역이다</w>":2663,"노동":2664,"받았":2665,"인정":2666,"리그":2667,"되며</w>":2668,"다이":2669,"2018년</w>":2670,"플레이":2671,"민족":2672,"인을</w>":2673,"2015년</w>":2674,"독일</w>":2675,"데뷔":2676,"디오</w>":2677,"제로</w>":2678,"이의</w>":2679,"연결":2680,"관한</w>":2681,"활약":2682,"발전":2683,"해야</w>":2684,"학자":2685,"받은</w>":2686,"있는데</w>":2687,"가운데</w>":2688,"2016년</w>":2689,"항공":2690,"기능":2691,"어를</w>":2692,"수상":2693,"않은</w>":2694,"오는</w>":2695,"마르":2696,"ing</w>":2697,"식으로</w>":2698,"0년대</w>":2699,"100":2700,"니아</w>":2701,"나가":2702,"스테":2703,"전에서</w>":2704,"인은</w>":2705,"학생":2706,"다면</w>":2707,"조선</w>":2708,"리고</w>":2709,"연합":2710,"원이</w>":2711,"고려":2712,"상이</w>":2713,"었고</w>":2714,"관리":2715,"행정":2716,"일으":2717,"상황":2718,"스로</w>":2719,"갔다</w>":2720,"이전":2721,"공개":2722,"드를</w>":2723,"어로</w>":2724,"기원전</w>":2725,"유지":2726,"전쟁</w>":2727,"2006년</w>":2728,"알려져</w>":2729,"대가</w>":2730,"구의</w>":2731,"인구는</w>":2732,"사에</w>":2733,"크게</w>":2734,"제를</w>":2735,"군을</w>":2736,"말한다</w>":2737,"열린</w>":2738,"대는</w>":2739,"정의":2740,"트의</w>":2741,"진출":2742,"개최":2743,"출전":2744,"세의</w>":2745,"들에</w>":2746,"중요한</w>":2747,"트를</w>":2748,"들어</w>":2749,"189":2750,"뜻은</w>":2751,"나라</w>":2752,"et":2753,"치는</w>":2754,"비롯":2755,"받고</w>":2756,"유럽</w>":2757,"유럽":2758,"장의</w>":2759,"2017년</w>":2760,"초등학교</w>":2761,"in</w>":2762,"하이":2763,"지역의</w>":2764,"태어났다</w>":2765,"처음</w>":2766,"지금":2767,"체의</w>":2768,"자동":2769,"서비":2770,"스포":2771,"니다</w>":2772,"ur":2773,"북도</w>":2774,"인물":2775,"그래":2776,"지로</w>":2777,"상으로</w>":2778,"10</w>":2779,"아래":2780,"않는다</w>":2781,"계약":2782,"체를</w>":2783,"이론":2784,"터는</w>":2785,"자연":2786,"전히</w>":2787,"변경":2788,"월드":2789,"20년</w>":2790,"비전</w>":2791,"정한</w>":2792,"사이에</w>":2793,"성은</w>":2794,"메리":2795,"한국</w>":2796,"시대</w>":2797,"트는</w>":2798,"적을</w>":2799,"한다는</w>":2800,"올림픽</w>":2801,"이가</w>":2802,"정책":2803,"킨다</w>":2804,"경기</w>":2805,"바로</w>":2806,"이기도</w>":2807,"로마":2808,"인민공화":2809,"로의</w>":2810,"임을</w>":2811,"원은</w>":2812,"안에</w>":2813,"동시에</w>":2814,"의한</w>":2815,"어는</w>":2816,"도에</w>":2817,"호는</w>":2818,"서의</w>":2819,"수로</w>":2820,"가진</w>":2821,"형성":2822,"수도</w>":2823,"치를</w>":2824,"않는</w>":2825,"제3":2826,"일까지</w>":2827,"경기에서</w>":2828,"적이</w>":2829,"40":2830,"이었던</w>":2831,"경찰":2832,"요구":2833,"어떤</w>":2834,"건설":2835,"명은</w>":2836,"대한민국":2837,"스에</w>":2838,"하려":2839,"르는</w>":2840,"른다</w>":2841,"아프리":2842,"각각</w>":2843,"소프":2844,"과는</w>":2845,"위하여</w>":2846,"결혼":2847,"역할을</w>":2848,"KB":2849,"린다</w>":2850,"거쳐</w>":2851,"혹은</w>":2852,"최고":2853,"지도":2854,"분류":2855,"중화":2856,"원으로</w>":2857,"시작했다</w>":2858,"위의</w>":2859,"해당":2860,"실시":2861,"ec":2862,"활동을</w>":2863,"보여":2864,"상대":2865,"us</w>":2866,"승강":2867,"위로</w>":2868,"최초의</w>":2869,"여기":2870,"시스템":2871,"비판":2872,"산업":2873,"페이":2874,"처음으로</w>":2875,"란드</w>":2876,"스에서</w>":2877,"소를</w>":2878,"스토":2879,"장에</w>":2880,"전라":2881,"모델":2882,"호를</w>":2883,"어머":2884,"회를</w>":2885,"러시아":2886,"제가</w>":2887,"음반":2888,"추가":2889,"영화이다</w>":2890,"프레":2891,"문학":2892,"The</w>":2893,"카이":2894,"스티":2895,"역을</w>":2896,"기준</w>":2897,"키는</w>":2898,"졸업":2899,"이란</w>":2900,"애니":2901,"컴퓨":2902,"기독":2903,"군에</w>":2904,"있다고</w>":2905,"사랑":2906,"러시아</w>":2907,"그를</w>":2908,"제국":2909,"제의</w>":2910,"제외":2911,"직접</w>":2912,"로마</w>":2913,"지하":2914,"모양":2915,"명이다</w>":2916,"단의</w>":2917,"비슷":2918,"내는</w>":2919,"해서는</w>":2920,"철도</w>":2921,"전문":2922,"기준으로</w>":2923,"아메리":2924,"랜드":2925,"앨범":2926,"당의</w>":2927,"수행":2928,"만에</w>":2929,"게임</w>":2930,"명칭":2931,"2019년</w>":2932,"드라마</w>":2933,"사무":2934,"un":2935,"부분</w>":2936,"아닌</w>":2937,"장에서</w>":2938,"서를</w>":2939,"21":2940,"인구</w>":2941,"판매":2942,"자와</w>":2943,"2005년</w>":2944,"체가</w>":2945,"규모":2946,"스코":2947,"이동":2948,"호로</w>":2949,"우스</w>":2950,"계를</w>":2951,"혔다</w>":2952,"특징":2953,"en</w>":2954,"캐나":2955,"FI":2956,"부가</w>":2957,"경기도</w>":2958,"국제</w>":2959,"기념":2960,"시리즈":2961,"되어":2962,"마다</w>":2963,"리스</w>":2964,"격을</w>":2965,"텔레비전</w>":2966,"하거나</w>":2967,"계속":2968,"그룹":2969,"공산":2970,"이미</w>":2971,"아들</w>":2972,"이상</w>":2973,"역임":2974,"시켰다</w>":2975,"도입":2976,"지구":2977,"이끌":2978,"있을</w>":2979,"자치":2980,"예를</w>":2981,"유일":2982,"했는데</w>":2983,"고등학교</w>":2984,"한다고</w>":2985,"어의</w>":2986,"지휘":2987,"시간</w>":2988,"자인</w>":2989,"스터</w>":2990,"노래":2991,"종의</w>":2992,"드러":2993,"부산":2994,"리아의</w>":2995,"이것은</w>":2996,"일반적으로</w>":2997,"스터":2998,"베트":2999,"등에</w>":3000,"했다고</w>":3001,"나무":3002,"ad":3003,"로를</w>":3004,"St":3005,"건물":3006,"2004년</w>":3007,"있다는</w>":3008,"에너":3009,"군사":3010,"속하는</w>":3011,"FC</w>":3012,"출시":3013,"대회</w>":3014,"지배":3015,"중심으로</w>":3016,"운행":3017,"다르":3018,"반대":3019,"포르":3020,"전통":3021,"관은</w>":3022,"마지막</w>":3023,"the</w>":3024,"주에</w>":3025,"이와</w>":3026,"ig":3027,"방향":3028,"188":3029,"여자</w>":3030,"쪽에</w>":3031,"비아":3032,"작업":3033,"분야":3034,"작용":3035,"골을</w>":3036,"기반":3037,"초등학교":3038,"em":3039,"가까":3040,"리로</w>":3041,"명으로</w>":3042,"화가</w>":3043,"서울</w>":3044,"리와</w>":3045,"애니메이":3046,"충청":3047,"대전":3048,"만든</w>":3049,"2002년</w>":3050,"인도":3051,"잉글":3052,"ag":3053,"Ch":3054,"브리":3055,"공동":3056,"등으로</w>":3057,"때문이다</w>":3058,"대신</w>":3059,"교회":3060,"요시":3061,"쳤다</w>":3062,"서도</w>":3063,"해를</w>":3064,"마을":3065,"세는</w>":3066,"이지만</w>":3067,"드리":3068,"위원회</w>":3069,"예정":3070,"비교":3071,"류의</w>":3072,"오늘":3073,"수도":3074,"단을</w>":3075,"번째":3076,"스카":3077,"적용":3078,"주민":3079,"달리</w>":3080,"선이</w>":3081,"자신이</w>":3082,"페르":3083,"이상의</w>":3084,"챔피":3085,"공연":3086,"작곡":3087,"트리":3088,"계속</w>":3089,"환경":3090,"선수</w>":3091,"확인":3092,"단체":3093,"예술":3094,"대하여</w>":3095,"그녀는</w>":3096,"대부분의</w>":3097,"행동":3098,"이탈리아</w>":3099,"성과</w>":3100,"비아</w>":3101,"동물":3102,"있지만</w>":3103,"시설":3104,"상은</w>":3105,"에이":3106,"시대의</w>":3107,"보호":3108,"추정":3109,"성에</w>":3110,"공간":3111,"상당":3112,"자료":3113,"결과</w>":3114,"증가":3115,"종교":3116,"면에</w>":3117,"바르":3118,"구를</w>":3119,"60":3120,"TV</w>":3121,"si":3122,"음악</w>":3123,"아일":3124,"식의</w>":3125,"트로":3126,"이런</w>":3127,"통합":3128,"인으로</w>":3129,"관을</w>":3130,"정부</w>":3131,"구에</w>":3132,"현재의</w>":3133,"상에</w>":3134,"게이":3135,"지도</w>":3136,"세가</w>":3137,"중학교</w>":3138,"밖에</w>":3139,"지역에</w>":3140,"od":3141,"설명":3142,"점이</w>":3143,"인간":3144,"기와</w>":3145,"이름은</w>":3146,"함으로써</w>":3147,"개념":3148,"세포":3149,"or</w>":3150,"식은</w>":3151,"방영":3152,"일에는</w>":3153,"and</w>":3154,"실패":3155,"le":3156,"원에</w>":3157,"있었던</w>":3158,"물리":3159,"열차":3160,"야마":3161,"다음을</w>":3162,"고속":3163,"le</w>":3164,"서울특별":3165,"담당":3166,"되기</w>":3167,"움을</w>":3168,"결승":3169,"이적":3170,"난다</w>":3171,"인이다</w>":3172,"정에</w>":3173,"지나":3174,"곳에</w>":3175,"대전</w>":3176,"제는</w>":3177,"하나이다</w>":3178,"최초로</w>":3179,"국가</w>":3180,"사와</w>":3181,"프로</w>":3182,"철도":3183,"조의</w>":3184,"으면</w>":3185,"태양":3186,"년의</w>":3187,"시민":3188,"방송</w>":3189,"보이":3190,"20</w>":3191,"교통":3192,"조건":3193,"겼다</w>":3194,"주를</w>":3195,"가의</w>":3196,"도로":3197,"가족":3198,"보인다</w>":3199,"th":3200,"도시</w>":3201,"사령":3202,"과를</w>":3203,"렇게</w>":3204,"지지":3205,"건축":3206,"심을</w>":3207,"있게</w>":3208,"국가대표":3209,"소설":3210,"지정되었다</w>":3211,"선언":3212,"세를</w>":3213,"무를</w>":3214,"의를</w>":3215,"자리":3216,"기본":3217,"법을</w>":3218,"만을</w>":3219,"하도록</w>":3220,"시키는</w>":3221,"보통</w>":3222,"보고":3223,"원래</w>":3224,"대통령</w>":3225,"뛰어":3226,"진을</w>":3227,"가르":3228,"이때</w>":3229,"단은</w>":3230,"15일</w>":3231,"오르":3232,"올림픽":3233,"선정":3234,"시는</w>":3235,"이들은</w>":3236,"식이</w>":3237,"ed</w>":3238,"자들은</w>":3239,"FIFA</w>":3240,"조사":3241,"ir":3242,"어진</w>":3243,"ation</w>":3244,"일이</w>":3245,"버스</w>":3246,"선출":3247,"소련":3248,"과에</w>":3249,"어가</w>":3250,"자기</w>":3251,"수록":3252,"선은</w>":3253,"2003년</w>":3254,"되기도</w>":3255,"민주주의":3256,"구하고</w>":3257,"점에서</w>":3258,"만이</w>":3259,"계의</w>":3260,"명령":3261,"하고":3262,"치가</w>":3263,"비를</w>":3264,"것에</w>":3265,"챔피언":3266,"전의</w>":3267,"어느</w>":3268,"oc":3269,"그룹</w>":3270,"20일</w>":3271,"가리킨다</w>":3272,"주었다</w>":3273,"어려":3274,"되었으나</w>":3275,"좋은</w>":3276,"수이다</w>":3277,"id":3278,"여성":3279,"올라":3280,"정신":3281,"186":3282,"10일</w>":3283,"소가</w>":3284,"되자</w>":3285,"현재는</w>":3286,"정당":3287,"렀다</w>":3288,"선택":3289,"os":3290,"역으로</w>":3291,"반응":3292,"네덜":3293,"191":3294,"대체":3295,"차량":3296,"회는</w>":3297,"시대":3298,"공식":3299,"국회의":3300,"올랐":3301,"팀의</w>":3302,"소프트":3303,"이상":3304,"학적</w>":3305,"3일</w>":3306,"간에</w>":3307,"선수이다</w>":3308,"광역시</w>":3309,"디오":3310,"이스":3311,"내려":3312,"소비":3313,"스웨":3314,"우주":3315,"보고</w>":3316,"정도</w>":3317,"없었다</w>":3318,"ve</w>":3319,"그들의</w>":3320,"프랑스":3321,"동에</w>":3322,"187":3323,"부로</w>":3324,"언급":3325,"걸쳐</w>":3326,"2000년</w>":3327,"부족":3328,"이유로</w>":3329,"6년에</w>":3330,"드가</w>":3331,"파이":3332,"공식</w>":3333,"왕의</w>":3334,"정확":3335,"ra":3336,"지지</w>":3337,"찾아":3338,"했을</w>":3339,"출판":3340,"자들이</w>":3341,"물질":3342,"하나의</w>":3343,"사고":3344,"5일</w>":3345,"야구</w>":3346,"선에</w>":3347,"더욱</w>":3348,"등과</w>":3349,"이름으로</w>":3350,"획득":3351,"5년에</w>":3352,"관할":3353,"의하여</w>":3354,"8년에</w>":3355,"있어서</w>":3356,"소유":3357,"레일":3358,"니는</w>":3359,"재판":3360,"면적은</w>":3361,"비행":3362,"영국의</w>":3363,"축구":3364,"7년에</w>":3365,"하다가</w>":3366,"사이의</w>":3367,"아버지</w>":3368,"변화":3369,"소의</w>":3370,"노르":3371,"것이라고</w>":3372,"웠다</w>":3373,"우승을</w>":3374,"25일</w>":3375,"개봉":3376,"그리스":3377,"하에</w>":3378,"관련</w>":3379,"형을</w>":3380,"28일</w>":3381,"와는</w>":3382,"비해</w>":3383,"치고</w>":3384,"쪽으로는</w>":3385,"해당</w>":3386,"금을</w>":3387,"모습을</w>":3388,"밝혔다</w>":3389,"시를</w>":3390,"op":3391,"4년에</w>":3392,"나오":3393,"했다는</w>":3394,"인과</w>":3395,"전국":3396,"지에서</w>":3397,"대신":3398,"기에는</w>":3399,"2일</w>":3400,"유사":3401,"트가</w>":3402,"동일":3403,"크의</w>":3404,"대중":3405,"7일</w>":3406,"하나</w>":3407,"전체</w>":3408,"BC</w>":3409,"시절":3410,"직을</w>":3411,"지방</w>":3412,"으므로</w>":3413,"지속":3414,"월에는</w>":3415,"시켜</w>":3416,"인데</w>":3417,"때는</w>":3418,"1년에</w>":3419,"불구하고</w>":3420,"목표":3421,"맡았다</w>":3422,"점령":3423,"뿐만</w>":3424,"2020년</w>":3425,"3년에</w>":3426,"라의</w>":3427,"앨범</w>":3428,"말했다</w>":3429,"30일</w>":3430,"지와</w>":3431,"학을</w>":3432,"원에서</w>":3433,"국은</w>":3434,"제2차</w>":3435,"li":3436,"사용하는</w>":3437,"2년에</w>":3438,"2001년</w>":3439,"사건</w>":3440,"나라의</w>":3441,"21일</w>":3442,"터의</w>":3443,"6일</w>":3444,"제국의</w>":3445,"8일</w>":3446,"때까지</w>":3447,"하의</w>":3448,"남아":3449,"In":3450,"하였는데</w>":3451,"나의</w>":3452,"가지로</w>":3453,"산을</w>":3454,"준다</w>":3455,"17일</w>":3456,"단에</w>":3457,"4일</w>":3458,"초기</w>":3459,"12일</w>":3460,"27일</w>":3461,"중에서</w>":3462,"프로젝":3463,"기간</w>":3464,"하여":3465,"그들은</w>":3466,"80":3467,"아의</w>":3468,"과정에서</w>":3469,"하나로</w>":3470,"널리</w>":3471,"불리":3472,"16일</w>":3473,"알려진</w>":3474,"가와</w>":3475,"26일</w>":3476,"70":3477,"이로</w>":3478,"포함한</w>":3479,"이듬":3480,"구분":3481,"안을</w>":3482,"18일</w>":3483,"도와</w>":3484,"곳에서</w>":3485,"생물":3486,"메달":3487,"고등학교":3488,"9일</w>":3489,"주변":3490,"었으며</w>":3491,"사라":3492,"회가</w>":3493,"프랑스의</w>":3494,"관이</w>":3495,"14일</w>":3496,"당은</w>":3497,"소속</w>":3498,"트에서</w>":3499,"단이</w>":3500,"현대":3501,"23일</w>":3502,"주인":3503,"내에</w>":3504,"9년에</w>":3505,"알렉":3506,"22일</w>":3507,"까지는</w>":3508,"디자":3509,"11일</w>":3510,"정이</w>":3511,"미사":3512,"움직":3513,"일은</w>":3514,"유래":3515,"독일의</w>":3516,"장과</w>":3517,"터를</w>":3518,"전은</w>":3519,"의미한다</w>":3520,"완전히</w>":3521,"가이다</w>":3522,"29일</w>":3523,"내고</w>":3524,"개인":3525,"수준":3526,"더불":3527,"제한":3528,"네이":3529,"대부분</w>":3530,"거주":3531,"정도로</w>":3532,"공립</w>":3533,"최대</w>":3534,"가로</w>":3535,"제품":3536,"정도":3537,"개혁":3538,"체는</w>":3539,"클럽":3540,"배치":3541,"사우":3542,"연주":3543,"자리</w>":3544,"13일</w>":3545,"목록":3546,"교의</w>":3547,"종이다</w>":3548,"회사":3549,"is</w>":3550,"년간</w>":3551,"사람이</w>":3552,"500":3553,"국이</w>":3554,"정의</w>":3555,"드라마":3556,"경험":3557,"분석":3558,"UE":3559,"전자":3560,"소는</w>":3561,"군과</w>":3562,"들도</w>":3563,"24일</w>":3564,"언어":3565,"실험":3566,"관계를</w>":3567,"나머":3568,"바탕":3569,"라도</w>":3570,"간다</w>":3571,"이기</w>":3572,"멤버":3573,"가를</w>":3574,"스탄":3575,"부터는</w>":3576,"문의</w>":3577,"평균</w>":3578,"말을</w>":3579,"서울특별시</w>":3580,"발달":3581,"시리즈</w>":3582,"12</w>":3583,"학자</w>":3584,"마찬":3585,"19일</w>":3586,"보는</w>":3587,"분리":3588,"연방":3589,"만의</w>":3590,"TV":3591,"거두":3592,"FC":3593,"바뀌":3594,"요청":3595,"비롯한</w>":3596,"언론":3597,"아시":3598,"으로도</w>":3599,"아카":3600,"역은</w>":3601,"캐릭":3602,"ow":3603,"받아들":3604,"해석":3605,"고대</w>":3606,"외에도</w>":3607,"위가</w>":3608,"있도록</w>":3609,"가톨":3610,"수용":3611,"박물":3612,"경기에</w>":3613,"크리스":3614,"구간":3615,"감독의</w>":3616,"우는</w>":3617,"조약":3618,"제국</w>":3619,"것도</w>":3620,"필리":3621,"위는</w>":3622,"갖고</w>":3623,"경제</w>":3624,"그림":3625,"통과":3626,"인도</w>":3627,"통일":3628,"월부터</w>":3629,"미디":3630,"35":3631,"인천":3632,"사회</w>":3633,"결합":3634,"선수로</w>":3635,"거리</w>":3636,"라운":3637,"로도</w>":3638,"플라":3639,"성장":3640,"들로</w>":3641,"구가</w>":3642,"전한</w>":3643,"감을</w>":3644,"가능한</w>":3645,"드로</w>":3646,"최고</w>":3647,"못했다</w>":3648,"여성</w>":3649,"음반</w>":3650,"us":3651,"승리":3652,"강화":3653,"전이</w>":3654,"1998년</w>":3655,"오리":3656,"투표":3657,"아마":3658,"부여":3659,"형의</w>":3660,"관으로</w>":3661,"제4":3662,"치료":3663,"지게</w>":3664,"식민":3665,"전해":3666,"경영":3667,"여자":3668,"레이</w>":3669,"우리":3670,"히로":3671,"멕시":3672,"대구":3673,"많다</w>":3674,"이들</w>":3675,"31":3676,"1999년</w>":3677,"파괴":3678,"방문":3679,"오스트레일":3680,"가능하다</w>":3681,"도서":3682,"목적으로</w>":3683,"있으나</w>":3684,"소재":3685,"경을</w>":3686,"경우가</w>":3687,"다만</w>":3688,"서식":3689,"태평":3690,"유명한</w>":3691,"ot":3692,"공을</w>":3693,"이해":3694,"경기를</w>":3695,"교회</w>":3696,"되면</w>":3697,"외에</w>":3698,"추진":3699,"강한</w>":3700,"설계":3701,"하계</w>":3702,"오사":3703,"남아</w>":3704,"ab":3705,"강력":3706,"드에서</w>":3707,"속에</w>":3708,"ap":3709,"사람들이</w>":3710,"구는</w>":3711,"기여":3712,"여겨":3713,"주도":3714,"일의</w>":3715,"그리스</w>":3716,"el</w>":3717,"부에서</w>":3718,"입단":3719,"그녀의</w>":3720,"세이":3721,"로스":3722,"먼저</w>":3723,"력은</w>":3724,"아시아</w>":3725,"있지</w>":3726,"소프트웨":3727,"북한":3728,"주연":3729,"부와</w>":3730,"번째로</w>":3731,"기간":3732,"외국":3733,"지역을</w>":3734,"랜드의</w>":3735,"기존":3736,"디지":3737,"대와</w>":3738,"하기로</w>":3739,"신을</w>":3740,"ia</w>":3741,"생활을</w>":3742,"의원</w>":3743,"스위":3744,"0년에</w>":3745,"교황":3746,"아프리카</w>":3747,"것과</w>":3748,"동맹":3749,"카르":3750,"ed":3751,"불리는</w>":3752,"역에서</w>":3753,"되었는데</w>":3754,"인한</w>":3755,"조선민주주의":3756,"것이었다</w>":3757,"조선민주주의인민공화":3758,"연기":3759,"패배":3760,"면을</w>":3761,"시험":3762,"중의</w>":3763,"조는</w>":3764,"세르":3765,"제작된</w>":3766,"피아":3767,"트로</w>":3768,"밝혀":3769,"조각":3770,"받는</w>":3771,"정부는</w>":3772,"번의</w>":3773,"비가</w>":3774,"전투</w>":3775,"함을</w>":3776,"이탈리아":3777,"성으로</w>":3778,"훈련":3779,"보면</w>":3780,"내에서</w>":3781,"졌고</w>":3782,"었던</w>":3783,"지상":3784,"클라":3785,"로써</w>":3786,"지역에서</w>":3787,"유니":3788,"ut":3789,"수많은</w>":3790,"et</w>":3791,"안정":3792,"정부의</w>":3793,"스피":3794,"식물":3795,"그대로</w>":3796,"싱글":3797,"로가</w>":3798,"지냈다</w>":3799,"1997년</w>":3800,"고려</w>":3801,"학의</w>":3802,"바꾸":3803,"시절</w>":3804,"나와</w>":3805,"제시":3806,"비슷한</w>":3807,"운동</w>":3808,"회사</w>":3809,"나고</w>":3810,"엘리":3811,"자이다</w>":3812,"de</w>":3813,"종이</w>":3814,"다의</w>":3815,"여기서</w>":3816,"학과</w>":3817,"ent":3818,"가수</w>":3819,"11</w>":3820,"등록":3821,"1995년</w>":3822,"상대로</w>":3823,"공화국</w>":3824,"기록했다</w>":3825,"안의</w>":3826,"행을</w>":3827,"아라":3828,"oun":3829,"의하면</w>":3830,"월드컵</w>":3831,"1996년</w>":3832,"야마</w>":3833,"않다</w>":3834,"개발</w>":3835,"끝에</w>":3836,"복귀":3837,"UEFA</w>":3838,"다카":3839,"국립":3840,"계에</w>":3841,"시마</w>":3842,"1992년</w>":3843,"살아":3844,"마음":3845,"점으로</w>":3846,"은퇴":3847,"해결":3848,"루이":3849,"수한</w>":3850,"경쟁":3851,"달러":3852,"여객":3853,"주고</w>":3854,"국을</w>":3855,"감독</w>":3856,"거부":3857,"팀은</w>":3858,"존재한다</w>":3859,"고를</w>":3860,"미국에서</w>":3861,"량이</w>":3862,"ar</w>":3863,"레스</w>":3864,"에게는</w>":3865,"im":3866,"관광":3867,"형태로</w>":3868,"회에</w>":3869,"연구</w>":3870,"해에</w>":3871,"리에서</w>":3872,"후의</w>":3873,"트라":3874,"회에서</w>":3875,"리포":3876,"대표적인</w>":3877,"스파":3878,"도쿄</w>":3879,"내의</w>":3880,"도착":3881,"있었고</w>":3882,"사용한다</w>":3883,"마찬가지로</w>":3884,"윌리":3885,"1994년</w>":3886,"미술":3887,"강원":3888,"이렇게</w>":3889,"선에서</w>":3890,"트워":3891,"시로</w>":3892,"아서</w>":3893,"근거":3894,"정은</w>":3895,"나무</w>":3896,"An":3897,"ce</w>":3898,"란이</w>":3899,"전체":3900,"대회에서</w>":3901,"습니다</w>":3902,"한국의</w>":3903,"주교":3904,"종합":3905,"아시아":3906,"가져":3907,"량을</w>":3908,"기초":3909,"쪽의</w>":3910,"보내":3911,"구성되어</w>":3912,"차례":3913,"왕이</w>":3914,"만큼</w>":3915,"되었던</w>":3916,"파견":3917,"였고</w>":3918,"시작하였다</w>":3919,"1990년</w>":3920,"기록을</w>":3921,"카와</w>":3922,"싱글</w>":3923,"대사":3924,"자주</w>":3925,"1988년</w>":3926,"영토":3927,"1991년</w>":3928,"있기</w>":3929,"헌법":3930,"이사":3931,"차를</w>":3932,"드와</w>":3933,"기타":3934,"낸다</w>":3935,"시마":3936,"리오":3937,"기타</w>":3938,"관의</w>":3939,"표준":3940,"단순":3941,"그렇":3942,"KBS</w>":3943,"교육</w>":3944,"중요":3945,"행정</w>":3946,"목을</w>":3947,"결성":3948,"보유":3949,"권의</w>":3950,"아티":3951,"성립":3952,"부른다</w>":3953,"15</w>":3954,"시행":3955,"따른</w>":3956,"크는</w>":3957,"생성":3958,"활용":3959,"ent</w>":3960,"폐지":3961,"물이</w>":3962,"트에</w>":3963,"185":3964,"라인</w>":3965,"통신":3966,"자에</w>":3967,"Th":3968,"주시</w>":3969,"이름이</w>":3970,"스튜":3971,"문제를</w>":3972,"사용된다</w>":3973,"시대에</w>":3974,"메달을</w>":3975,"화된</w>":3976,"오스":3977,"테이":3978,"ter":3979,"역의</w>":3980,"세워":3981,"역에</w>":3982,"제조":3983,"적으로는</w>":3984,"발행":3985,"상징":3986,"드에</w>":3987,"위험":3988,"ver":3989,"oo":3990,"다루":3991,"아래</w>":3992,"자리를</w>":3993,"년을</w>":3994,"당선":3995,"유전":3996,"떨어진</w>":3997,"산의</w>":3998,"사용할</w>":3999,"시도":4000,"후쿠":4001,"계열":4002,"36":4003,"도쿄":4004,"10년</w>":4005,"스페인</w>":4006,"대해서는</w>":4007,"주어":4008,"집합":4009,"보다는</w>":4010,"접근":4011,"화의</w>":4012,"선거</w>":4013,"um":4014,"션은</w>":4015,"방어":4016,"문에</w>":4017,"플로":4018,"인들이</w>":4019,"관련된</w>":4020,"제기":4021,"NA":4022,"아키":4023,"라디오</w>":4024,"일반</w>":4025,"중화인민공화":4026,"중국의</w>":4027,"하라</w>":4028,"남자</w>":4029,"근처":4030,"당이</w>":4031,"제안":4032,"문이</w>":4033,"45":4034,"나머지</w>":4035,"선수권</w>":4036,"못하고</w>":4037,"의원":4038,"부정":4039,"관찰":4040,"해도</w>":4041,"정규</w>":4042,"대응":4043,"후반":4044,"이집":4045,"출신</w>":4046,"까지의</w>":4047,"1993년</w>":4048,"였으며</w>":4049,"포르투":4050,"란을</w>":4051,"문제가</w>":4052,"묘사":4053,"구조를</w>":4054,"이슬":4055,"자들의</w>":4056,"당을</w>":4057,"유대":4058,"분포":4059,"시가</w>":4060,"도시로</w>":4061,"해의</w>":4062,"오른":4063,"상에서</w>":4064,"면에서</w>":4065,"현대</w>":4066,"되었지만</w>":4067,"32":4068,"우승</w>":4069,"사망하였다</w>":4070,"이주":4071,"등은</w>":4072,"네트워":4073,"정치</w>":4074,"이미":4075,"력의</w>":4076,"이던</w>":4077,"컴퓨터</w>":4078,"규모</w>":4079,"필요한</w>":4080,"우리</w>":4081,"의회</w>":4082,"확장":4083,"지난</w>":4084,"못한</w>":4085,"베네":4086,"루스</w>":4087,"법률":4088,"량은</w>":4089,"애니메이션</w>":4090,"이지</w>":4091,"38":4092,"유일한</w>":4093,"점은</w>":4094,"산으로</w>":4095,"아나":4096,"중단":4097,"계약을</w>":4098,"포지":4099,"완성":4100,"제5":4101,"소에</w>":4102,"선발":4103,"데뷔</w>":4104,"1989년</w>":4105,"만들어</w>":4106,"음력</w>":4107,"광역":4108,"팀이</w>":4109,"체포":4110,"크리":4111,"프란":4112,"30</w>":4113,"um</w>":4114,"관측":4115,"에만</w>":4116,"og":4117,"운동을</w>":4118,"알렉산":4119,"각의</w>":4120,"아니다</w>":4121,"르의</w>":4122,"통하여</w>":4123,"신의</w>":4124,"사이에서</w>":4125,"곡을</w>":4126,"친구":4127,"가가</w>":4128,"준비":4129,"조합":4130,"선과</w>":4131,"트와</w>":4132,"주가</w>":4133,"발사":4134,"않아</w>":4135,"낮은</w>":4136,"정치적</w>":4137,"종류":4138,"센터</w>":4139,"아무":4140,"31일</w>":4141,"리오</w>":4142,"상과</w>":4143,"과정을</w>":4144,"경우에는</w>":4145,"경상북도</w>":4146,"처리":4147,"위치하고</w>":4148,"더불어</w>":4149,"16</w>":4150,"나누":4151,"사에서</w>":4152,"전달":4153,"양의</w>":4154,"차례</w>":4155,"경상남도</w>":4156,"어머니":4157,"시키고</w>":4158,"공항":4159,"모토":4160,"전기":4161,"대표</w>":4162,"조를</w>":4163,"세에</w>":4164,"력으로</w>":4165,"각종</w>":4166,"오래":4167,"개를</w>":4168,"사실을</w>":4169,"이용하여</w>":4170,"최근":4171,"근무":4172,"출신의</w>":4173,"은행":4174,"뉴욕</w>":4175,"뉴욕":4176,"뒤에</w>":4177,"기독교":4178,"스타</w>":4179,"가까운</w>":4180,"주에서</w>":4181,"롭게</w>":4182,"기능을</w>":4183,"레코":4184,"쉽게</w>":4185,"계승":4186,"1945년</w>":4187,"좋아":4188,"자본":4189,"체결":4190,"최고의</w>":4191,"나온</w>":4192,"90":4193,"효과":4194,"스키":4195,"점에</w>":4196,"소로</w>":4197,"Al":4198,"새로</w>":4199,"통치":4200,"원자":4201,"책임":4202,"올리":4203,"ran":4204,"300":4205,"나카":4206,"당한</w>":4207,"래의</w>":4208,"업을</w>":4209,"부모":4210,"승강장</w>":4211,"특정</w>":4212,"실제</w>":4213,"역이</w>":4214,"동생":4215,"해졌다</w>":4216,"종은</w>":4217,"분에</w>":4218,"단으로</w>":4219,"물론</w>":4220,"제임":4221,"야구":4222,"정식</w>":4223,"만약</w>":4224,"올랐다</w>":4225,"체계":4226,"일어난</w>":4227,"전환":4228,"베트남</w>":4229,"비는</w>":4230,"의견":4231,"184":4232,"드로":4233,"분을</w>":4234,"인들은</w>":4235,"조성":4236,"참여하였다</w>":4237,"표시":4238,"있어":4239,"표기":4240,"여러":4241,"이듬해</w>":4242,"문화</w>":4243,"보존":4244,"반면</w>":4245,"으면서</w>":4246,"마쓰":4247,"인지</w>":4248,"총독":4249,"만들어진</w>":4250,"중이다</w>":4251,"프로그램</w>":4252,"즈의</w>":4253,"국에</w>":4254,"달성":4255,"종으로</w>":4256,"세우":4257,"관에</w>":4258,"나게</w>":4259,"기존의</w>":4260,"량의</w>":4261,"사람은</w>":4262,"변호":4263,"석을</w>":4264,"개월</w>":4265,"불린다</w>":4266,"책을</w>":4267,"아우":4268,"캐나다</w>":4269,"가정":4270,"국내</w>":4271,"아직</w>":4272,"소개":4273,"아프리카":4274,"갖추":4275,"군사</w>":4276,"로로</w>":4277,"의로</w>":4278,"실제로</w>":4279,"협회</w>":4280,"바탕으로</w>":4281,"tion</w>":4282,"과거</w>":4283,"았고</w>":4284,"BS</w>":4285,"아내":4286,"금지":4287,"이전</w>":4288,"바라":4289,"오브</w>":4290,"합류":4291,"피해":4292,"만족":4293,"바이러":4294,"사인</w>":4295,"장이다</w>":4296,"규정":4297,"충분":4298,"시청":4299,"ay</w>":4300,"이라고도</w>":4301,"단계":4302,"물의</w>":4303,"쪽은</w>":4304,"프라":4305,"프로듀":4306,"조지":4307,"시와</w>":4308,"연속</w>":4309,"마사":4310,"드래":4311,"ep":4312,"지적":4313,"2차</w>":4314,"조가</w>":4315,"ity</w>":4316,"선으로</w>":4317,"cm</w>":4318,"자기":4319,"터가</w>":4320,"av":4321,"다니":4322,"어린</w>":4323,"하겠":4324,"부인</w>":4325,"질을</w>":4326,"1986년</w>":4327,"프는</w>":4328,"클레":4329,"보수":4330,"크라이":4331,"전으로</w>":4332,"어린":4333,"강조":4334,"교황</w>":4335,"바다":4336,"주와</w>":4337,"르고</w>":4338,"일로</w>":4339,"혁명":4340,"34":4341,"공격을</w>":4342,"길이</w>":4343,"마련":4344,"안전":4345,"대륙":4346,"슬라":4347,"스포츠</w>":4348,"버트</w>":4349,"가입":4350,"치로</w>":4351,"19</w>":4352,"나중에</w>":4353,"파의</w>":4354,"정보를</w>":4355,"둘러":4356,"되었다가</w>":4357,"하려는</w>":4358,"전기</w>":4359,"체육":4360,"제외한</w>":4361,"사람을</w>":4362,"캘리포":4363,"시에는</w>":4364,"시스템</w>":4365,"라고도</w>":4366,"바람":4367,"몇몇</w>":4368,"수비":4369,"지니":4370,"외교":4371,"문은</w>":4372,"시킨</w>":4373,"활동</w>":4374,"스크</w>":4375,"마지막":4376,"고구":4377,"사이</w>":4378,"전투에서</w>":4379,"속에서</w>":4380,"as</w>":4381,"정착":4382,"해군</w>":4383,"시기에</w>":4384,"민주당</w>":4385,"1987년</w>":4386,"문화재":4387,"위해서</w>":4388,"권이</w>":4389,"소년":4390,"여전히</w>":4391,"불가":4392,"했기</w>":4393,"제거":4394,"스스로</w>":4395,"가서</w>":4396,"장애":4397,"면의</w>":4398,"어와</w>":4399,"졌으며</w>":4400,"50</w>":4401,"되는데</w>":4402,"적이고</w>":4403,"그라":4404,"등에서</w>":4405,"수와</w>":4406,"호선</w>":4407,"보이는</w>":4408,"000</w>":4409,"말이다</w>":4410,"치의</w>":4411,"사상</w>":4412,"났으며</w>":4413,"슈퍼":4414,"리우":4415,"번역":4416,"일반적인</w>":4417,"그래서</w>":4418,"광주":4419,"인디":4420,"월드컵":4421,"글로":4422,"색을</w>":4423,"이루어져</w>":4424,"독립</w>":4425,"이후에</w>":4426,"오후</w>":4427,"기술</w>":4428,"체로</w>":4429,"호가</w>":4430,"촬영":4431,"디지털</w>":4432,"이승":4433,"33":4434,"슬로":4435,"평화":4436,"mm":4437,"스러":4438,"공업":4439,"전시":4440,"제주":4441,"at</w>":4442,"저항":4443,"팀을</w>":4444,"길이는</w>":4445,"사용하여</w>":4446,"엔터":4447,"Mar":4448,"이므로</w>":4449,"1984년</w>":4450,"보였다</w>":4451,"웨이</w>":4452,"만드는</w>":4453,"문화재</w>":4454,"대에서</w>":4455,"진이</w>":4456,"전라남도</w>":4457,"qu":4458,"사람</w>":4459,"국방":4460,"승격":4461,"덴마":4462,"최종</w>":4463,"중인</w>":4464,"마이크로":4465,"경에</w>":4466,"인하여</w>":4467,"항상</w>":4468,"있었지만</w>":4469,"월드</w>":4470,"IS":4471,"기존</w>":4472,"론을</w>":4473,"소설</w>":4474,"이었고</w>":4475,"공급":4476,"출생":4477,"허용":4478,"CA":4479,"때부터</w>":4480,"인터넷</w>":4481,"세기에</w>":4482,"180":4483,"ev":4484,"월까지</w>":4485,"전략":4486,"만들었다</w>":4487,"정상":4488,"나폴":4489,"소송":4490,"향을</w>":4491,"남부</w>":4492,"에드":4493,"헤이":4494,"받지</w>":4495,"개통":4496,"귀족":4497,"온다</w>":4498,"기까지</w>":4499,"사용되는</w>":4500,"종목":4501,"유형":4502,"소년</w>":4503,"ak":4504,"당에</w>":4505,"뒤를</w>":4506,"48":4507,"안에서</w>":4508,"원과</w>":4509,"조정":4510,"오카":4511,"스키</w>":4512,"인에</w>":4513,"충돌":4514,"ob":4515,"인간의</w>":4516,"하다고</w>":4517,"정부가</w>":4518,"하려</w>":4519,"끄는</w>":4520,"고는</w>":4521,"강의</w>":4522,"워드</w>":4523,"경우도</w>":4524,"도에서</w>":4525,"매년</w>":4526,"편집":4527,"사람들은</w>":4528,"실을</w>":4529,"1985년</w>":4530,"외의</w>":4531,"승리를</w>":4532,"는지</w>":4533,"적의</w>":4534,"공무":4535,"37":4536,"1980년</w>":4537,"려고</w>":4538,"작성":4539,"13</w>":4540,"모토</w>":4541,"취임":4542,"남은</w>":4543,"아메리카</w>":4544,"강력한</w>":4545,"조지</w>":4546,"모스크":4547,"군으로</w>":4548,"uc":4549,"자들을</w>":4550,"르게</w>":4551,"지인</w>":4552,"기획":4553,"력에</w>":4554,"스테이":4555,"그려":4556,"시에서</w>":4557,"아름":4558,"세운</w>":4559,"ine</w>":4560,"불교":4561,"네덜란":4562,"육군</w>":4563,"지명":4564,"과거":4565,"집중":4566,"카메":4567,"리지</w>":4568,"도움을</w>":4569,"하루":4570,"스턴</w>":4571,"로스</w>":4572,"보도":4573,"비디오</w>":4574,"력과</w>":4575,"그에</w>":4576,"힘을</w>":4577,"계산":4578,"경계":4579,"가리키는</w>":4580,"기고</w>":4581,"당시의</w>":4582,"과학</w>":4583,"위치해</w>":4584,"Un":4585,"병을</w>":4586,"관심을</w>":4587,"위협":4588,"39":4589,"인식":4590,"기독교</w>":4591,"그해</w>":4592,"당했다</w>":4593,"채택":4594,"연속":4595,"때에는</w>":4596,"확실":4597,"공동</w>":4598,"1982년</w>":4599,"지구</w>":4600,"로서의</w>":4601,"늘어":4602,"나가</w>":4603,"제에</w>":4604,"클래":4605,"일종이다</w>":4606,"사상":4607,"확보":4608,"국에서</w>":4609,"and":4610,"제1차</w>":4611,"나오는</w>":4612,"남동":4613,"미니":4614,"자신을</w>":4615,"고양":4616,"와이":4617,"자이":4618,"일부":4619,"중화민":4620,"나서</w>":4621,"시즌을</w>":4622,"방식으로</w>":4623,"구로</w>":4624,"지역은</w>":4625,"보통":4626,"무장":4627,"에르":4628,"사회적</w>":4629,"2개의</w>":4630,"사용한</w>":4631,"ing":4632,"지금의</w>":4633,"강점":4634,"제임스</w>":4635,"카운":4636,"오늘날":4637,"서부</w>":4638,"종종</w>":4639,"진은</w>":4640,"수에</w>":4641,"되었다고</w>":4642,"만한</w>":4643,"주장했다</w>":4644,"체에</w>":4645,"본관은</w>":4646,"죽은</w>":4647,"연합</w>":4648,"발표했다</w>":4649,"어떻":4650,"0년대에</w>":4651,"개인</w>":4652,"하려고</w>":4653,"eg":4654,"통한</w>":4655,"자유</w>":4656,"윈도":4657,"100</w>":4658,"상업":4659,"18</w>":4660,"단백":4661,"판단":4662,"성격":4663,"너무</w>":4664,"탑재":4665,"아는</w>":4666,"초대</w>":4667,"속의</w>":4668,"사람의</w>":4669,"이스라":4670,"아카데":4671,"거래":4672,"하고자</w>":4673,"슈타":4674,"mm</w>":4675,"리그의</w>":4676,"요일</w>":4677,"간주":4678,"타이틀":4679,"발매되었다</w>":4680,"설립된</w>":4681,"14</w>":4682,"전반":4683,"비용":4684,"뛰어난</w>":4685,"시작되었다</w>":4686,"25</w>":4687,"화에</w>":4688,"서에</w>":4689,"관리</w>":4690,"Ar":4691,"동음":4692,"방식":4693,"면이</w>":4694,"베를":4695,"400":4696,"연방</w>":4697,"구축":4698,"질의</w>":4699,"형이</w>":4700,"cm":4701,"이루어진</w>":4702,"나뉘":4703,"점차</w>":4704,"이끄는</w>":4705,"배경":4706,"술을</w>":4707,"본래</w>":4708,"천황":4709,"크를</w>":4710,"에피":4711,"회복":4712,"밴드</w>":4713,"면서도</w>":4714,"내용을</w>":4715,"트레이":4716,"현의</w>":4717,"스케":4718,"주연으로</w>":4719,"운영</w>":4720,"정도의</w>":4721,"갖춘</w>":4722,"제목":4723,"시간이</w>":4724,"기계":4725,"di":4726,"입학":4727,"형태의</w>":4728,"이것이</w>":4729,"km이다</w>":4730,"화는</w>":4731,"1983년</w>":4732,"II</w>":4733,"넓은</w>":4734,"가게</w>":4735,"없었":4736,"개가</w>":4737,"인기를</w>":4738,"개봉한</w>":4739,"모리</w>":4740,"제도</w>":4741,"유로</w>":4742,"위에서</w>":4743,"병사":4744,"에선</w>":4745,"후에는</w>":4746,"법의</w>":4747,"마을</w>":4748,"비교적</w>":4749,"ay":4750,"복잡":4751,"법에</w>":4752,"북부</w>":4753,"쓰인다</w>":4754,"곡은</w>":4755,"아주</w>":4756,"지이다</w>":4757,"넘어":4758,"작품</w>":4759,"년과</w>":4760,"적이다</w>":4761,"명한</w>":4762,"승을</w>":4763,"족의</w>":4764,"MBC</w>":4765,"니스</w>":4766,"오프":4767,"잠시</w>":4768,"에서만</w>":4769,"이었으나</w>":4770,"신경":4771,"사실상</w>":4772,"br</w>":4773,"가에</w>":4774,"류를</w>":4775,"테인":4776,"강을</w>":4777,"자동차</w>":4778,"자에게</w>":4779,"뮤지":4780,"영어</w>":4781,"에게서</w>":4782,"있었으며</w>":4783,"179":4784,"자동차":4785,"BC":4786,"중학교":4787,"범죄":4788,"때에</w>":4789,"분의</w>":4790,"동계</w>":4791,"Sh":4792,"이전에</w>":4793,"형은</w>":4794,"증거":4795,"세계에서</w>":4796,"고로</w>":4797,"미래":4798,"구체":4799,"세웠다</w>":4800,"클럽</w>":4801,"그린</w>":4802,"to</w>":4803,"고리":4804,"제6":4805,"산은</w>":4806,"최종":4807,"폴란드</w>":4808,"있었으나</w>":4809,"코의</w>":4810,"편입":4811,"동을</w>":4812,"수입":4813,"잉글랜드</w>":4814,"브레":4815,"태어난</w>":4816,"Li":4817,"정으로</w>":4818,"폴리":4819,"FA":4820,"소에서</w>":4821,"공작":4822,"웨이":4823,"시장</w>":4824,"아르헨":4825,"테인먼":4826,"1981년</w>":4827,"임명되었다</w>":4828,"벌어":4829,"션을</w>":4830,"스웨덴":4831,"호의</w>":4832,"아르헨티":4833,"정보</w>":4834,"ell":4835,"am</w>":4836,"그레":4837,"신이</w>":4838,"청년":4839,"아파":4840,"별로</w>":4841,"데이비":4842,"75":4843,"183":4844,"공부":4845,"대상으로</w>":4846,"개편":4847,"전혀</w>":4848,"헝가":4849,"감소":4850,"인들의</w>":4851,"위치한다</w>":4852,"때의</w>":4853,"ph":4854,"구성된</w>":4855,"물러":4856,"전쟁이</w>":4857,"흔히</w>":4858,"서가</w>":4859,"17</w>":4860,"발을</w>":4861,"수학":4862,"국내":4863,"명에</w>":4864,"폴란":4865,"발견된다</w>":4866,"황제</w>":4867,"엔터테인먼":4868,"주식":4869,"하다는</w>":4870,"모리":4871,"원칙":4872,"합병":4873,"시티":4874,"18년</w>":4875,"사례":4876,"계획을</w>":4877,"학위를</w>":4878,"초등학교는</w>":4879,"수록</w>":4880,"룬다</w>":4881,"초등학교이다</w>":4882,"심리":4883,"대학교에서</w>":4884,"전개":4885,"상호":4886,"충청남도</w>":4887,"지하철</w>":4888,"리기</w>":4889,"씨는</w>":4890,"중앙</w>":4891,"역사</w>":4892,"우크라이":4893,"실행":4894,"런던":4895,"함에</w>":4896,"동음이의</w>":4897,"권에</w>":4898,"진의</w>":4899,"하늘":4900,"지면서</w>":4901,"대해서</w>":4902,"북동":4903,"ation":4904,"1위를</w>":4905,"토론":4906,"아일랜드</w>":4907,"크라":4908,"중에는</w>":4909,"등장하는</w>":4910,"설치되어</w>":4911,"ice</w>":4912,"이곳":4913,"현실":4914,"12년</w>":4915,"55":4916,"오히":4917,"아가</w>":4918,"법은</w>":4919,"공간</w>":4920,"신설":4921,"여름":4922,"회원":4923,"미나":4924,"작가</w>":4925,"건너":4926,"모두":4927,"강원도</w>":4928,"노력":4929,"기본</w>":4930,"서비스</w>":4931,"1979년</w>":4932,"의의</w>":4933,"그런":4934,"150":4935,"높이</w>":4936,"유명하다</w>":4937,"편성":4938,"프트</w>":4939,"대항":4940,"공사</w>":4941,"나다</w>":4942,"이었으며</w>":4943,"AT":4944,"권은</w>":4945,"어떻게</w>":4946,"씨의</w>":4947,"산업</w>":4948,"장군</w>":4949,"떨어져</w>":4950,"의해서</w>":4951,"터미":4952,"클리":4953,"이래</w>":4954,"역사상</w>":4955,"어도</w>":4956,"대립":4957,"1972년</w>":4958,"윌리엄</w>":4959,"포지션은</w>":4960,"워싱":4961,"그레이":4962,"증명":4963,"문제</w>":4964,"국가의</w>":4965,"국회의원</w>":4966,"왕은</w>":4967,"전사":4968,"ard</w>":4969,"았으며</w>":4970,"명예":4971,"없고</w>":4972,"세로</w>":4973,"가와":4974,"목록</w>":4975,"음이</w>":4976,"다운</w>":4977,"ub":4978,"국으로</w>":4979,"카를</w>":4980,"그런</w>":4981,"인수":4982,"하였지만</w>":4983,"1973년</w>":4984,"브루":4985,"파르":4986,"군이다</w>":4987,"받을</w>":4988,"구와</w>":4989,"수립":4990,"본격":4991,"제정":4992,"파리</w>":4993,"스미":4994,"일제</w>":4995,"기에서</w>":4996,"선생":4997,"스턴":4998,"참석":4999,"료로</w>":5000,"받게</w>":5001,"물로</w>":5002,"기업</w>":5003,"비의</w>":5004,"전쟁을</w>":5005,"다섯</w>":5006,"리이다</w>":5007,"이탈리아의</w>":5008,"벗어":5009,"비율":5010,"내각":5011,"비난":5012,"프의</w>":5013,"계급":5014,"뜻이</w>":5015,"철도역이다</w>":5016,"판결":5017,"있었는데</w>":5018,"메이저</w>":5019,"부르크</w>":5020,"평균":5021,"시간을</w>":5022,"검찰":5023,"후지":5024,"오늘날</w>":5025,"집을</w>":5026,"측정":5027,"항공</w>":5028,"가시":5029,"전차":5030,"결과를</w>":5031,"수여":5032,"은행</w>":5033,"주목":5034,"CO":5035,"저지":5036,"시킬</w>":5037,"지원을</w>":5038,"일으켰":5039,"짧은</w>":5040,"에너지</w>":5041,"종을</w>":5042,"64":5043,"감염":5044,"남북":5045,"사용되었다</w>":5046,"동일한</w>":5047,"미야":5048,"되었을</w>":5049,"정책을</w>":5050,"확정":5051,"보냈다</w>":5052,"해방":5053,"ty</w>":5054,"받았고</w>":5055,"2차":5056,"타고</w>":5057,"뜻을</w>":5058,"동의</w>":5059,"브로":5060,"슨은</w>":5061,"비밀":5062,"의사":5063,"길을</w>":5064,"최근</w>":5065,"프로세":5066,"법원</w>":5067,"경의</w>":5068,"속한</w>":5069,"조사</w>":5070,"지원</w>":5071,"홈런":5072,"국제공":5073,"21</w>":5074,"규모의</w>":5075,"베트남":5076,"방향으로</w>":5077,"놓고</w>":5078,"머리":5079,"붕괴":5080,"일어나":5081,"오히려</w>":5082,"테르":5083,"신은</w>":5084,"추정된다</w>":5085,"다며</w>":5086,"출발":5087,"받는다</w>":5088,"제작에</w>":5089,"말에</w>":5090,"않을</w>":5091,"설을</w>":5092,"대형</w>":5093,"어머니</w>":5094,"십자":5095,"igh":5096,"미터</w>":5097,"직후</w>":5098,"연맹":5099,"지어</w>":5100,"주인공":5101,"센터":5102,"스코틀":5103,"히데":5104,"세대</w>":5105,"젊은</w>":5106,"신앙":5107,"전국</w>":5108,"0년대":5109,"그것은</w>":5110,"료를</w>":5111,"선거에서</w>":5112,"얼굴":5113,"능력을</w>":5114,"훨씬</w>":5115,"전자</w>":5116,"노래</w>":5117,"교회의</w>":5118,"자리에</w>":5119,"스탄</w>":5120,"분류</w>":5121,"이익":5122,"금융":5123,"관심":5124,"장착":5125,"시카":5126,"유의</w>":5127,"블루":5128,"일본에서</w>":5129,"이끌고</w>":5130,"투입":5131,"스마":5132,"후손":5133,"복을</w>":5134,"이후에는</w>":5135,"가톨릭":5136,"제7":5137,"플랫":5138,"태평양</w>":5139,"각본":5140,"어들":5141,"화학":5142,"겨울":5143,"보드</w>":5144,"정리":5145,"단체</w>":5146,"살해":5147,"러시아의</w>":5148,"네덜란드</w>":5149,"2년":5150,"심각":5151,"려는</w>":5152,"인사":5153,"니의</w>":5154,"기술을</w>":5155,"US":5156,"마케":5157,"알고</w>":5158,"가능성이</w>":5159,"규칙":5160,"활발":5161,"대성":5162,"아미":5163,"프로그램이다</w>":5164,"채널":5165,"용으로</w>":5166,"집행":5167,"유리":5168,"출마":5169,"녹음":5170,"전까지</w>":5171,"제작</w>":5172,"출입":5173,"알아":5174,"가격":5175,"가수":5176,"삼각":5177,"문과</w>":5178,"하우":5179,"추측":5180,"기반으로</w>":5181,"보급":5182,"사건을</w>":5183,"방법을</w>":5184,"산이</w>":5185,"았던</w>":5186,"품을</w>":5187,"보살":5188,"문학</w>":5189,"스럽":5190,"내셔":5191,"역대</w>":5192,"ic</w>":5193,"마드리":5194,"쓰는</w>":5195,"기억":5196,"여행":5197,"가고</w>":5198,"거대한</w>":5199,"세인":5200,"부산</w>":5201,"고자</w>":5202,"교육을</w>":5203,"ov":5204,"연극":5205,"수정":5206,"단과</w>":5207,"앤젤":5208,"그에게</w>":5209,"1974년</w>":5210,"ge</w>":5211,"159":5212,"역과</w>":5213,"다수의</w>":5214,"뜻한다</w>":5215,"40</w>":5216,"었는데</w>":5217,"관계가</w>":5218,"면은</w>":5219,"lu":5220,"작가":5221,"개월":5222,"얻었다</w>":5223,"3개의</w>":5224,"썼다</w>":5225,"두었다</w>":5226,"판을</w>":5227,"해안":5228,"전과</w>":5229,"맡고</w>":5230,"산에</w>":5231,"오스트리아</w>":5232,"1년":5233,"어렵":5234,"글을</w>":5235,"오전</w>":5236,"음에도</w>":5237,"Com":5238,"지키":5239,"다음은</w>":5240,"폭발":5241,"이들의</w>":5242,"ik":5243,"이드</w>":5244,"발표한</w>":5245,"아테":5246,"창설":5247,"발생한</w>":5248,"협력":5249,"북서":5250,"런던</w>":5251,"직접":5252,"지낸</w>":5253,"속한다</w>":5254,"차이가</w>":5255,"박쥐":5256,"sp":5257,"여서</w>":5258,"Ne":5259,"등급":5260,"비록</w>":5261,"해진</w>":5262,"화로</w>":5263,"삼국":5264,"권한":5265,"삼성":5266,"윈도우</w>":5267,"지붕":5268,"원이다</w>":5269,"차지했다</w>":5270,"더라도</w>":5271,"간단":5272,"거절":5273,"이야기를</w>":5274,"그와</w>":5275,"었다고</w>":5276,"조에</w>":5277,"1971년</w>":5278,"지기</w>":5279,"소련</w>":5280,"1948년</w>":5281,"47":5282,"효율":5283,"사용하고</w>":5284,"1976년</w>":5285,"무게":5286,"종류의</w>":5287,"콘서":5288,"작으로</w>":5289,"2개</w>":5290,"구별":5291,"관계</w>":5292,"선고":5293,"이르는</w>":5294,"1970년</w>":5295,"저장":5296,"당과</w>":5297,"파라":5298,"해체":5299,"학교를</w>":5300,"동생</w>":5301,"위해서는</w>":5302,"카의</w>":5303,"시작한</w>":5304,"99":5305,"1963년</w>":5306,"해당하는</w>":5307,"초에</w>":5308,"1978년</w>":5309,"공식적으로</w>":5310,"즈는</w>":5311,"au":5312,"제출":5313,"오래된</w>":5314,"위와</w>":5315,"말로</w>":5316,"설이</w>":5317,"타를</w>":5318,"대원":5319,"임시":5320,"앞에</w>":5321,"취급":5322,"이야기":5323,"생을</w>":5324,"지어":5325,"연장":5326,"경향":5327,"이름</w>":5328,"형식":5329,"확대":5330,"관할한다</w>":5331,"1968년</w>":5332,"행정구":5333,"작품을</w>":5334,"Sp":5335,"에피소":5336,"진보":5337,"넘는</w>":5338,"사용</w>":5339,"지며</w>":5340,"김영":5341,"Con":5342,"크가</w>":5343,"애니메이션":5344,"소방":5345,"행사":5346,"데에</w>":5347,"학생</w>":5348,"항을</w>":5349,"사업을</w>":5350,"소와</w>":5351,"설정":5352,"소비에":5353,"형으로</w>":5354,"처음에는</w>":5355,"이유는</w>":5356,"한때</w>":5357,"국과</w>":5358,"부문</w>":5359,"양을</w>":5360,"김정":5361,"상당히</w>":5362,"AR":5363,"카를":5364,"BS":5365,"그것을</w>":5366,"주의를</w>":5367,"앞두고</w>":5368,"이어서</w>":5369,"데이터</w>":5370,"1로</w>":5371,"마리":5372,"렸고</w>":5373,"투자":5374,"높이는</w>":5375,"아버지는</w>":5376,"연맹</w>":5377,"나이티":5378,"적극":5379,"선발</w>":5380,"법이</w>":5381,"도움":5382,"였으나</w>":5383,"클로":5384,"만은</w>":5385,"전문</w>":5386,"옮겨":5387,"1969년</w>":5388,"반도</w>":5389,"남편":5390,"유나이티":5391,"양성":5392,"하는":5393,"박정":5394,"이것을</w>":5395,"장악":5396,"실은</w>":5397,"아들로</w>":5398,"성우":5399,"스러운</w>":5400,"세와</w>":5401,"인근":5402,"사업</w>":5403,"로스앤젤":5404,"160":5405,"신인</w>":5406,"재를</w>":5407,"니시":5408,"안은</w>":5409,"지방의</w>":5410,"에스":5411,"요리":5412,"노부":5413,"생명":5414,"178":5415,"강에</w>":5416,"후보</w>":5417,"모를</w>":5418,"1차</w>":5419,"이용한</w>":5420,"부근":5421,"교체":5422,"인간</w>":5423,"무늬":5424,"인도네":5425,"빠른</w>":5426,"일과</w>":5427,"르트</w>":5428,"기사":5429,"1의</w>":5430,"공개된</w>":5431,"오랜</w>":5432,"얼마</w>":5433,"없다고</w>":5434,"oh":5435,"이용해</w>":5436,"3년":5437,"라틴":5438,"선교":5439,"신문":5440,"19세기</w>":5441,"말레이":5442,"키의</w>":5443,"살고</w>":5444,"하였다고</w>":5445,"사태":5446,"교수":5447,"무엇":5448,"AP":5449,"잡고</w>":5450,"일러":5451,"즉위":5452,"세포</w>":5453,"카이</w>":5454,"히는</w>":5455,"46":5456,"11년</w>":5457,"미드":5458,"상하":5459,"나라를</w>":5460,"ST":5461,"멸망":5462,"수출":5463,"그런데</w>":5464,"산화":5465,"뉴스</w>":5466,"유한</w>":5467,"우주</w>":5468,"물은</w>":5469,"지나</w>":5470,"제와</w>":5471,"산맥":5472,"스포츠":5473,"동원":5474,"미를</w>":5475,"이시":5476,"사건이</w>":5477,"업무":5478,"의가</w>":5479,"1975년</w>":5480,"모양의</w>":5481,"보를</w>":5482,"수사":5483,"이번</w>":5484,"개선":5485,"시작하여</w>":5486,"차이":5487,"sh":5488,"방사":5489,"챔피언스":5490,"깊은</w>":5491,"약간</w>":5492,"공원</w>":5493,"미의</w>":5494,"오페":5495,"머물":5496,"목적":5497,"활동하였다</w>":5498,"분이</w>":5499,"개정":5500,"요코":5501,"탄생":5502,"농업":5503,"라가</w>":5504,"마의</w>":5505,"서비스를</w>":5506,"적절":5507,"취득":5508,"기록하였다</w>":5509,"물에</w>":5510,"프리미":5511,"아사":5512,"행성":5513,"방출":5514,"장인</w>":5515,"었으나</w>":5516,"발표하였다</w>":5517,"도르":5518,"국도</w>":5519,"시각":5520,"예상":5521,"혁명</w>":5522,"것처럼</w>":5523,"주니":5524,"도달":5525,"선수가</w>":5526,"사운":5527,"귀국":5528,"와서</w>":5529,"라운드</w>":5530,"언을</w>":5531,"재직":5532,"유도":5533,"대상":5534,"정복":5535,"로버트</w>":5536,"헤르":5537,"만화":5538,"은하":5539,"각각의</w>":5540,"바다</w>":5541,"시기</w>":5542,"사회주의</w>":5543,"사망했다</w>":5544,"들어가</w>":5545,"프로이":5546,"1964년</w>":5547,"모델</w>":5548,"시작으로</w>":5549,"조판":5550,"1977년</w>":5551,"사실</w>":5552,"쓰고</w>":5553,"달라":5554,"사고</w>":5555,"시티</w>":5556,"집단":5557,"보낸</w>":5558,"반복":5559,"시내":5560,"배를</w>":5561,"이전의</w>":5562,"하나는</w>":5563,"1950년</w>":5564,"격으로</w>":5565,"의존":5566,"통제":5567,"라이브</w>":5568,"그러한</w>":5569,"마치</w>":5570,"th</w>":5571,"건립":5572,"방을</w>":5573,"기록</w>":5574,"반영":5575,"령을</w>":5576,"왕을</w>":5577,"받았으며</w>":5578,"데이터":5579,"잇는</w>":5580,"포기":5581,"빠르게</w>":5582,"나라에</w>":5583,"전라북도</w>":5584,"경성":5585,"현재까지</w>":5586,"형태를</w>":5587,"갈라":5588,"도망":5589,"남서":5590,"논란이</w>":5591,"교차":5592,"행위":5593,"않았고</w>":5594,"왕국의</w>":5595,"스트리":5596,"포함되어</w>":5597,"증을</w>":5598,"파는</w>":5599,"경기는</w>":5600,"수상했다</w>":5601,"경우는</w>":5602,"대규모</w>":5603,"않는":5604,"3개</w>":5605,"태어났으며</w>":5606,"리게</w>":5607,"불러":5608,"연극</w>":5609,"공유":5610,"코르":5611,"시즌에</w>":5612,"루이</w>":5613,"동부</w>":5614,"역임했다</w>":5615,"포인":5616,"캠퍼":5617,"1960년</w>":5618,"러스</w>":5619,"패를</w>":5620,"1946년</w>":5621,"장기":5622,"피해를</w>":5623,"평가를</w>":5624,"니콜":5625,"Pro":5626,"석이</w>":5627,"반드":5628,"제대로</w>":5629,"암살":5630,"류가</w>":5631,"지리":5632,"질이</w>":5633,"논쟁":5634,"뮤직":5635,"생산</w>":5636,"국가대표팀</w>":5637,"울산":5638,"코미":5639,"블랙":5640,"어떠":5641,"가톨릭</w>":5642,"Le":5643,"이성":5644,"니아의</w>":5645,"보장":5646,"창조":5647,"출신으로</w>":5648,"기관</w>":5649,"운용":5650,"자연</w>":5651,"타는</w>":5652,"출연하였고</w>":5653,"사진":5654,"제8":5655,"리그에서</w>":5656,"오스트레일리아</w>":5657,"약을</w>":5658,"토마":5659,"독자":5660,"4개의</w>":5661,"소프트웨어</w>":5662,"말았다</w>":5663,"씨가</w>":5664,"예선</w>":5665,"기록한</w>":5666,"득점":5667,"ae</w>":5668,"든다</w>":5669,"추가</w>":5670,"님의</w>":5671,"교수</w>":5672,"들이다</w>":5673,"65":5674,"ad</w>":5675,"작품이다</w>":5676,"죽음":5677,"밀도는</w>":5678,"차별":5679,"플래":5680,"법칙":5681,"박사</w>":5682,"색의</w>":5683,"발매된</w>":5684,"다르다</w>":5685,"동이</w>":5686,"반드시</w>":5687,"부활":5688,"개최된</w>":5689,"00년</w>":5690,"군대를</w>":5691,"재위</w>":5692,"이민":5693,"것이며</w>":5694,"특별한</w>":5695,"Par":5696,"애플":5697,"추어</w>":5698,"영입":5699,"크레":5700,"종료":5701,"프린":5702,"목소":5703,"1962년</w>":5704,"지식":5705,"장식":5706,"발견된</w>":5707,"고용":5708,"명확":5709,"도중</w>":5710,"작업을</w>":5711,"방영된</w>":5712,"사후</w>":5713,"란의</w>":5714,"리스트":5715,"유사한</w>":5716,"동성":5717,"라를</w>":5718,"하였던</w>":5719,"소수":5720,"부분을</w>":5721,"ie</w>":5722,"들고</w>":5723,"합격":5724,"23</w>":5725,"팀에</w>":5726,"사용되고</w>":5727,"화와</w>":5728,"세계의</w>":5729,"임진":5730,"침공":5731,"4년":5732,"주변</w>":5733,"연구를</w>":5734,"49":5735,"학년</w>":5736,"정확한</w>":5737,"OS</w>":5738,"미는</w>":5739,"포르투갈":5740,"lo":5741,"시킨다</w>":5742,"지냈":5743,"되지만</w>":5744,"수송":5745,"지자</w>":5746,"이후로</w>":5747,"남쪽</w>":5748,"콘스탄":5749,"1967년</w>":5750,"로와</w>":5751,"마침":5752,"명명":5753,"블라":5754,"ch</w>":5755,"여기에</w>":5756,"면으로</w>":5757,"무리":5758,"연출":5759,"생겨":5760,"세기":5761,"민간":5762,"에어":5763,"반에</w>":5764,"문제로</w>":5765,"삼성</w>":5766,"의료":5767,"만나</w>":5768,"신라</w>":5769,"2면</w>":5770,"가지는</w>":5771,"지역으로</w>":5772,"열렸다</w>":5773,"지은</w>":5774,"천문":5775,"정규":5776,"조선의</w>":5777,"조직</w>":5778,"재정":5779,"토의</w>":5780,"ate</w>":5781,"맞이":5782,"트랜":5783,"나타내는</w>":5784,"브라질</w>":5785,"해가</w>":5786,"공포":5787,"오카</w>":5788,"특수":5789,"세한</w>":5790,"개발한</w>":5791,"투쟁":5792,"군에서</w>":5793,"통을</w>":5794,"전동":5795,"개신":5796,"중심</w>":5797,"신청":5798,"ey</w>":5799,"ff":5800,"도쿠":5801,"국무":5802,"부임":5803,"상승":5804,"사회의</w>":5805,"된다는</w>":5806,"소비에트</w>":5807,"거리":5808,"마지막으로</w>":5809,"노선":5810,"독특":5811,"아랍":5812,"발매</w>":5813,"감독을</w>":5814,"표준</w>":5815,"채용":5816,"접한</w>":5817,"작품은</w>":5818,"66":5819,"88":5820,"까지도</w>":5821,"가로":5822,"대략</w>":5823,"인터뷰":5824,"비치</w>":5825,"무라</w>":5826,"진입":5827,"김일":5828,"드레":5829,"1949년</w>":5830,"목표로</w>":5831,"마이클</w>":5832,"통해서</w>":5833,"칼리":5834,"사전</w>":5835,"177":5836,"락을</w>":5837,"미디어</w>":5838,"친일":5839,"앞서</w>":5840,"출간":5841,"기록이</w>":5842,"계기로</w>":5843,"이야기</w>":5844,"빼앗":5845,"평양":5846,"포도":5847,"22</w>":5848,"메시":5849,"변경되었다</w>":5850,"스페인":5851,"개로</w>":5852,"알려졌다</w>":5853,"프로그램을</w>":5854,"풍부":5855,"영어":5856,"1965년</w>":5857,"문헌":5858,"달러</w>":5859,"차가</w>":5860,"배출":5861,"열을</w>":5862,"후인</w>":5863,"아리":5864,"이었지만</w>":5865,"하므로</w>":5866,"후반</w>":5867,"석은</w>":5868,"않으며</w>":5869,"이뤄":5870,"str":5871,"어떠한</w>":5872,"고전":5873,"었지만</w>":5874,"영화는</w>":5875,"1일에</w>":5876,"per":5877,"이룬다</w>":5878,"나들":5879,"1961년</w>":5880,"자료</w>":5881,"동으로</w>":5882,"표를</w>":5883,"당시에는</w>":5884,"사법":5885,"이들을</w>":5886,"집에</w>":5887,"대상</w>":5888,"문자</w>":5889,"들로부터</w>":5890,"조로</w>":5891,"파악":5892,"공의</w>":5893,"제이":5894,"하느":5895,"고정":5896,"반대로</w>":5897,"한다면</w>":5898,"세종":5899,"En":5900,"평을</w>":5901,"일부는</w>":5902,"산시</w>":5903,"Coun":5904,"교통</w>":5905,"id</w>":5906,"나를</w>":5907,"래는</w>":5908,"섰다</w>":5909,"1966년</w>":5910,"엄청":5911,"중추":5912,"진압":5913,"이기":5914,"파일</w>":5915,"불과":5916,"구에서</w>":5917,"개시":5918,"부분이</w>":5919,"음악을</w>":5920,"기후":5921,"나왔다</w>":5922,"지내":5923,"전에는</w>":5924,"단지</w>":5925,"한국에서</w>":5926,"루마":5927,"보내</w>":5928,"항복":5929,"대부분은</w>":5930,"어이다</w>":5931,"레오":5932,"번호는</w>":5933,"0으로</w>":5934,"인공":5935,"유럽의</w>":5936,"지닌</w>":5937,"2세</w>":5938,"후보로</w>":5939,"분위":5940,"온라인</w>":5941,"리처":5942,"프를</w>":5943,"존재하는</w>":5944,"끝난</w>":5945,"디스":5946,"그들이</w>":5947,"24</w>":5948,"ber":5949,"보르":5950,"Re":5951,"에의</w>":5952,"활동했다</w>":5953,"자신들의</w>":5954,"갖는</w>":5955,"가치가</w>":5956,"무기":5957,"보험":5958,"디아":5959,"프라이":5960,"ou</w>":5961,"내용은</w>":5962,"둘러싸":5963,"대통령이</w>":5964,"관과</w>":5965,"로드</w>":5966,"전통적인</w>":5967,"플레":5968,"부르는</w>":5969,"차원</w>":5970,"유행":5971,"ang":5972,"편이다</w>":5973,"NA</w>":5974,"섬의</w>":5975,"카드</w>":5976,"라이브":5977,"판이</w>":5978,"해양":5979,"심한</w>":5980,"활성":5981,"5년":5982,"있음을</w>":5983,"점점</w>":5984,"알게</w>":5985,"일치":5986,"교를</w>":5987,"대구</w>":5988,"바닥":5989,"속을</w>":5990,"PC":5991,"지급":5992,"4개</w>":5993,"탈락":5994,"없다는</w>":5995,"흡수":5996,"아스":5997,"우의</w>":5998,"1세</w>":5999,"났고</w>":6000,"IC":6001,"주둔":6002,"으로서의</w>":6003,"트랙":6004,"노스":6005,"신문</w>":6006,"예정이다</w>":6007,"카라":6008,"멕시코</w>":6009,"어져</w>":6010,"대학교의</w>":6011,"여객철도</w>":6012,"건조":6013,"포함하고</w>":6014,"아이디":6015,"58":6016,"가이":6017,"텍사":6018,"ich":6019,"상륙":6020,"형제":6021,"망을</w>":6022,"병으로</w>":6023,"승진":6024,"방법으로</w>":6025,"문에서</w>":6026,"언어</w>":6027,"보기</w>":6028,"농민":6029,"홍콩":6030,"상당한</w>":6031,"북쪽</w>":6032,"토리":6033,"포함한다</w>":6034,"ill":6035,"실질":6036,"올렸다</w>":6037,"탈출":6038,"종교</w>":6039,"차트</w>":6040,"명칭은</w>":6041,"오사카</w>":6042,"몽골":6043,"구조</w>":6044,"뜻하는</w>":6045,"만화</w>":6046,"다운":6047,"문으로</w>":6048,"1944년</w>":6049,"고의</w>":6050,"문서":6051,"역사적</w>":6052,"지상역이다</w>":6053,"OS":6054,"손을</w>":6055,"자살":6056,"의미를</w>":6057,"대회에</w>":6058,"마침내</w>":6059,"잉글랜드의</w>":6060,"법으로</w>":6061,"활약을</w>":6062,"뉴질":6063,"식에</w>":6064,"불렀다</w>":6065,"헨리</w>":6066,"했다가</w>":6067,"68":6068,"유로":6069,"계가</w>":6070,"1개</w>":6071,"상태로</w>":6072,"것이라는</w>":6073,"프로그래":6074,"색으로</w>":6075,"주의의</w>":6076,"소속으로</w>":6077,"감독으로</w>":6078,"하나인</w>":6079,"제작한</w>":6080,"1000":6081,"ci":6082,"라스</w>":6083,"명과</w>":6084,"라며</w>":6085,"무시":6086,"신라":6087,"향해</w>":6088,"되어야</w>":6089,"나이</w>":6090,"카이도</w>":6091,"철학":6092,"치에</w>":6093,"프가</w>":6094,"주장하였다</w>":6095,"환경</w>":6096,"율을</w>":6097,"치게</w>":6098,"이후의</w>":6099,"44":6100,"운동에</w>":6101,"창립":6102,"저작":6103,"우려":6104,"돈을</w>":6105,"트레":6106,"경제적</w>":6107,"it</w>":6108,"느끼":6109,"건설</w>":6110,"본선</w>":6111,"사마":6112,"위원</w>":6113,"쪽에는</w>":6114,"열대</w>":6115,"파를</w>":6116,"중간":6117,"홍콩</w>":6118,"함수</w>":6119,"크로아티":6120,"데스":6121,"SBS</w>":6122,"보았다</w>":6123,"대한민국에서는</w>":6124,"혐의로</w>":6125,"원년</w>":6126,"종사":6127,"크고</w>":6128,"분명":6129,"의무":6130,"건국":6131,"생존":6132,"공화국의</w>":6133,"쓰이는</w>":6134,"동작":6135,"고가</w>":6136,"층의</w>":6137,"성인</w>":6138,"학술":6139,"없으며</w>":6140,"경이</w>":6141,"뜻으로</w>":6142,"공연을</w>":6143,"오랫":6144,"화한</w>":6145,"한정":6146,"코미디</w>":6147,"건을</w>":6148,"내부</w>":6149,"메이지</w>":6150,"코로":6151,"신뢰":6152,"분쟁":6153,"코드</w>":6154,"부분은</w>":6155,"이름의</w>":6156,"그렇게</w>":6157,"CD</w>":6158,"아직":6159,"스웨덴</w>":6160,"동료":6161,"니가</w>":6162,"효과를</w>":6163,"활동하고</w>":6164,"시키기</w>":6165,"나지</w>":6166,"중화인민공화국</w>":6167,"대법":6168,"이와":6169,"나이로</w>":6170,"라이</w>":6171,"도시이다</w>":6172,"컴퓨터":6173,"뮤직</w>":6174,"사단":6175,"세력을</w>":6176,"1941년</w>":6177,"오랫동안</w>":6178,"태어나</w>":6179,"급제":6180,"합의":6181,"Lo":6182,"제도를</w>":6183,"상위</w>":6184,"노예":6185,"서양":6186,"되었다는</w>":6187,"하지는</w>":6188,"60</w>":6189,"러는</w>":6190,"방정":6191,"차량</w>":6192,"AM":6193,"도시의</w>":6194,"생활</w>":6195,"아가":6196,"잘못":6197,"2의</w>":6198,"등장한다</w>":6199,"쳐서</w>":6200,"스스":6201,"크에서</w>":6202,"누구":6203,"무너":6204,"tr":6205,"경은</w>":6206,"육상</w>":6207,"크와</w>":6208,"화이":6209,"1940년</w>":6210,"제도":6211,"주교</w>":6212,"리더":6213,"미쓰":6214,"대공":6215,"전설":6216,"포함하여</w>":6217,"출시되었다</w>":6218,"곡의</w>":6219,"미가</w>":6220,"감독이</w>":6221,"나타난다</w>":6222,"예측":6223,"으니</w>":6224,"전인</w>":6225,"반발":6226,"De":6227,"변화를</w>":6228,"포위":6229,"20세기</w>":6230,"하루</w>":6231,"일으키":6232,"오스만</w>":6233,"대해":6234,"입니다</w>":6235,"se</w>":6236,"곳으로</w>":6237,"연산":6238,"받침":6239,"구현":6240,"경우에</w>":6241,"베이</w>":6242,"요소":6243,"이슬람":6244,"요새":6245,"쪽에서</w>":6246,"우라":6247,"자로서</w>":6248,"임시</w>":6249,"방의</w>":6250,"고향":6251,"근대":6252,"여름</w>":6253,"피에":6254,"졸업하고</w>":6255,"데이비드</w>":6256,"거리를</w>":6257,"CD":6258,"안이</w>":6259,"곡으로</w>":6260,"사람들의</w>":6261,"대표하는</w>":6262,"계는</w>":6263,"목록이다</w>":6264,"간행":6265,"아야</w>":6266,"온은</w>":6267,"동의":6268,"고종</w>":6269,"무렵</w>":6270,"이들이</w>":6271,"57":6272,"였지만</w>":6273,"된다고</w>":6274,"머리</w>":6275,"름을</w>":6276,"인지":6277,"빅토":6278,"시스</w>":6279,"인조</w>":6280,"잡지</w>":6281,"해외</w>":6282,"하에서</w>":6283,"고구려":6284,"1958년</w>":6285,"린은</w>":6286,"연구소</w>":6287,"아시안</w>":6288,"인터넷":6289,"스프":6290,"이에":6291,"거운</w>":6292,"타임":6293,"스페인의</w>":6294,"신으로</w>":6295,"크래":6296,"각을</w>":6297,"일본에</w>":6298,"해당한다</w>":6299,"계에서</w>":6300,"건물</w>":6301,"대리":6302,"열차</w>":6303,"가졌다</w>":6304,"입장을</w>":6305,"학자들은</w>":6306,"점의</w>":6307,"뮤니":6308,"m의</w>":6309,"내가</w>":6310,"에서부터</w>":6311,"영화배우</w>":6312,"캐릭터":6313,"NH":6314,"동쪽</w>":6315,"말이</w>":6316,"장관</w>":6317,"에게도</w>":6318,"무덤":6319,"서비스":6320,"충청북도</w>":6321,"부인":6322,"공공":6323,"않게</w>":6324,"시작한다</w>":6325,"실제":6326,"처벌":6327,"하드":6328,"들에서</w>":6329,"특이":6330,"마리아</w>":6331,"했었다</w>":6332,"기자":6333,"눈에</w>":6334,"앞에서</w>":6335,"ers</w>":6336,"기울":6337,"1956년</w>":6338,"어에</w>":6339,"시작된</w>":6340,"DV":6341,"누스</w>":6342,"복합":6343,"형사":6344,"선정되었다</w>":6345,"신학":6346,"사키</w>":6347,"연히</w>":6348,"공통":6349,"론의</w>":6350,"맡아</w>":6351,"all":6352,"대학의</w>":6353,"교환":6354,"해산":6355,"보아</w>":6356,"완전한</w>":6357,"2선의</w>":6358,"차로</w>":6359,"평안":6360,"편의</w>":6361,"대개</w>":6362,"오피":6363,"니아주</w>":6364,"K리그</w>":6365,"연재":6366,"SS":6367,"Ma":6368,"우선</w>":6369,"편찬":6370,"듯이</w>":6371,"임진왜":6372,"조약</w>":6373,"행위를</w>":6374,"56":6375,"부상을</w>":6376,"안토":6377,"올린</w>":6378,"처형":6379,"유일하게</w>":6380,"교향":6381,"인구가</w>":6382,"con":6383,"제공한다</w>":6384,"해야":6385,"Di":6386,"오키":6387,"새롭게</w>":6388,"세워</w>":6389,"1947년</w>":6390,"하자":6391,"화학</w>":6392,"곡이</w>":6393,"방식을</w>":6394,"pl":6395,"나폴레":6396,"성적을</w>":6397,"내렸다</w>":6398,"인들을</w>":6399,"바이에":6400,"로에</w>":6401,"행동을</w>":6402,"무역":6403,"일부를</w>":6404,"캐나다의</w>":6405,"어에서</w>":6406,"이제</w>":6407,"커뮤니":6408,"비디오":6409,"공헌":6410,"다르게</w>":6411,"스위스</w>":6412,"놓은</w>":6413,"타의</w>":6414,"격한</w>":6415,"레슬":6416,"함과</w>":6417,"km이고</w>":6418,"시스템을</w>":6419,"네트워크</w>":6420,"헌법</w>":6421,"계획</w>":6422,"기대":6423,"높아":6424,"보관":6425,"43":6426,"강이</w>":6427,"대장":6428,"령이</w>":6429,"왕으로</w>":6430,"연구에</w>":6431,"2008":6432,"성능":6433,"비트</w>":6434,"지시":6435,"기회를</w>":6436,"연관":6437,"변환":6438,"독특한</w>":6439,"all</w>":6440,"캐나다":6441,"가인</w>":6442,"라인":6443,"2로</w>":6444,"다스":6445,"상이다</w>":6446,"리스트</w>":6447,"함락":6448,"과정</w>":6449,"전공":6450,"적합":6451,"머스</w>":6452,"후기</w>":6453,"ex":6454,"소스</w>":6455,"얻은</w>":6456,"지금은</w>":6457,"완료":6458,"정치인이다</w>":6459,"국립</w>":6460,"지하</w>":6461,"시장":6462,"오사카":6463,"사임":6464,"통산</w>":6465,"1919년</w>":6466,"거두었다</w>":6467,"주관":6468,"다케":6469,"연결하는</w>":6470,"구속":6471,"원숭":6472,"42":6473,"불교</w>":6474,"유형문화재</w>":6475,"kg":6476,"치지</w>":6477,"상황에서</w>":6478,"수원":6479,"0년부터</w>":6480,"KBO</w>":6481,"헝가리</w>":6482,"막을</w>":6483,"작품으로</w>":6484,"명령을</w>":6485,"천시</w>":6486,"지위를</w>":6487,"800":6488,"사망</w>":6489,"핀란":6490,"책임을</w>":6491,"카운티</w>":6492,"보건":6493,"치와</w>":6494,"사용된</w>":6495,"전쟁의</w>":6496,"가문의</w>":6497,"Be":6498,"데뷔하였다</w>":6499,"네스</w>":6500,"없어</w>":6501,"영은</w>":6502,"이루고</w>":6503,"관에서</w>":6504,"노선</w>":6505,"린의</w>":6506,"도모":6507,"만으로</w>":6508,"오스</w>":6509,"입은</w>":6510,"차는</w>":6511,"속으로</w>":6512,"특정한</w>":6513,"res":6514,"어려운</w>":6515,"120":6516,"체와</w>":6517,"근본":6518,"조절":6519,"따로</w>":6520,"석의</w>":6521,"학에서</w>":6522,"생의</w>":6523,"시나":6524,"1년부터</w>":6525,"7년에는</w>":6526,"시기":6527,"소화":6528,"발견되었다</w>":6529,"되게</w>":6530,"스코</w>":6531,"잠수":6532,"1959년</w>":6533,"가니":6534,"600":6535,"반대</w>":6536,"ter</w>":6537,"전형":6538,"이루어졌다</w>":6539,"포를</w>":6540,"부상":6541,"사냥":6542,"수집":6543,"ne</w>":6544,"1면</w>":6545,"소녀":6546,"정부에</w>":6547,"시리즈의</w>":6548,"실현":6549,"중간</w>":6550,"상대적으로</w>":6551,"구이다</w>":6552,"계통":6553,"est</w>":6554,"취소":6555,"터키</w>":6556,"가담":6557,"성군</w>":6558,"기록은</w>":6559,"미드필":6560,"SA":6561,"자녀":6562,"번에</w>":6563,"확립":6564,"설치된</w>":6565,"추천":6566,"크루":6567,"Am":6568,"son</w>":6569,"3년부터</w>":6570,"부대":6571,"방송을</w>":6572,"우수":6573,"전쟁에</w>":6574,"안으로</w>":6575,"어디":6576,"필리핀</w>":6577,"연대</w>":6578,"함이</w>":6579,"열차가</w>":6580,"김성":6581,"주택":6582,"주의적</w>":6583,"우리는</w>":6584,"한의</w>":6585,"향상":6586,"공산당</w>":6587,"소련의</w>":6588,"떠나</w>":6589,"랐다</w>":6590,"영화배우이다</w>":6591,"77":6592,"생긴</w>":6593,"세계적으로</w>":6594,"상품":6595,"세력":6596,"맡은</w>":6597,"호에</w>":6598,"2년부터</w>":6599,"스케이":6600,"세이</w>":6601,"프로젝트</w>":6602,"end":6603,"파트":6604,"0년에는</w>":6605,"남쪽으로</w>":6606,"세웠":6607,"모아</w>":6608,"4년에는</w>":6609,"메인</w>":6610,"점이다</w>":6611,"기다":6612,"병이</w>":6613,"찰스</w>":6614,"전주":6615,"아들인</w>":6616,"170":6617,"다음의</w>":6618,"고속도로</w>":6619,"아메리카":6620,"가족</w>":6621,"설립되었다</w>":6622,"군주":6623,"붙여":6624,"심각한</w>":6625,"스럽게</w>":6626,"Wor":6627,"오토":6628,"중화민국</w>":6629,"콘스탄티":6630,"밝히":6631,"분열":6632,"제공하는</w>":6633,"1954년</w>":6634,"1939년</w>":6635,"5년부터</w>":6636,"검은</w>":6637,"내부":6638,"희생":6639,"3년에는</w>":6640,"졸업</w>":6641,"비아의</w>":6642,"반란을</w>":6643,"전에서는</w>":6644,"마르크":6645,"로이</w>":6646,"만들어졌다</w>":6647,"문제에</w>":6648,"마루":6649,"라노</w>":6650,"오른쪽</w>":6651,"합성":6652,"1952년</w>":6653,"다이</w>":6654,"성공을</w>":6655,"되어있다</w>":6656,"아오":6657,"6년에는</w>":6658,"대표로</w>":6659,"수요":6660,"멕시코":6661,"오직</w>":6662,"실의</w>":6663,"티아":6664,"정책</w>":6665,"컨트":6666,"화되어</w>":6667,"사람들을</w>":6668,"천연":6669,"되던</w>":6670,"밴드":6671,"상호</w>":6672,"키가</w>":6673,"담을</w>":6674,"치러":6675,"회와</w>":6676,"득표":6677,"작전</w>":6678,"전쟁에서</w>":6679,"4년부터</w>":6680,"ud":6681,"죽었다</w>":6682,"중세</w>":6683,"류는</w>":6684,"져서</w>":6685,"노래를</w>":6686,"5년에는</w>":6687,"동은</w>":6688,"목에</w>":6689,"바의</w>":6690,"회장</w>":6691,"정차":6692,"이른":6693,"대부분이</w>":6694,"플랫폼":6695,"나라는</w>":6696,"초기의</w>":6697,"군에게</w>":6698,"천군</w>":6699,"관계에</w>":6700,"왕국</w>":6701,"슨의</w>":6702,"김종":6703,"2년에는</w>":6704,"보안":6705,"일리":6706,"내용이</w>":6707,"대통령의</w>":6708,"워싱턴</w>":6709,"추구":6710,"붉은</w>":6711,"역사를</w>":6712,"위치를</w>":6713,"듣고</w>":6714,"80</w>":6715,"바뀌었다</w>":6716,"6년부터</w>":6717,"필요가</w>":6718,"1942년</w>":6719,"Cl":6720,"시켜":6721,"왼쪽</w>":6722,"원하는</w>":6723,"금이</w>":6724,"터리</w>":6725,"자극":6726,"대비":6727,"아름다운</w>":6728,"나온다</w>":6729,"조작":6730,"Uni":6731,"다가":6732,"측은</w>":6733,"사실이</w>":6734,"화되었다</w>":6735,"엄청난</w>":6736,"금메달을</w>":6737,"완공":6738,"이하</w>":6739,"진으로</w>":6740,"보유하고</w>":6741,"회사의</w>":6742,"이름이다</w>":6743,"두려":6744,"지금까지</w>":6745,"지구의</w>":6746,"청구":6747,"최소</w>":6748,"판은</w>":6749,"진흥":6750,"있었기</w>":6751,"참모":6752,"om</w>":6753,"존재하지</w>":6754,"운동의</w>":6755,"스에게</w>":6756,"싱가":6757,"업무를</w>":6758,"의학":6759,"미사일</w>":6760,"넓이는</w>":6761,"기구</w>":6762,"물이다</w>":6763,"59":6764,"NE":6765,"솔로</w>":6766,"공연</w>":6767,"리버":6768,"재로</w>":6769,"학습":6770,"해외":6771,"He":6772,"상황을</w>":6773,"자들</w>":6774,"노의</w>":6775,"식과</w>":6776,"약한</w>":6777,"지켜":6778,"자체":6779,"for</w>":6780,"가타":6781,"이면</w>":6782,"침입":6783,"하여야</w>":6784,"예술</w>":6785,"새겨":6786,"루이스</w>":6787,"가진다</w>":6788,"1차":6789,"만들</w>":6790,"씨를</w>":6791,"제9":6792,"2009":6793,"1년에는</w>":6794,"다소</w>":6795,"모르":6796,"오의</w>":6797,"화합":6798,"민족</w>":6799,"저술":6800,"계약</w>":6801,"7년부터</w>":6802,"담은</w>":6803,"쿠데":6804,"모니":6805,"전용</w>":6806,"히틀":6807,"머니":6808,"운영하고</w>":6809,"크에</w>":6810,"대체로</w>":6811,"행성</w>":6812,"리그에</w>":6813,"값을</w>":6814,"동안에</w>":6815,"승인":6816,"총리</w>":6817,"장교":6818,"남성</w>":6819,"연대":6820,"지었다</w>":6821,"직에</w>":6822,"서쪽</w>":6823,"일정한</w>":6824,"학자이다</w>":6825,"플루":6826,"가운데":6827,"em</w>":6828,"기상":6829,"오고</w>":6830,"곳이다</w>":6831,"세상을</w>":6832,"접한다</w>":6833,"상태가</w>":6834,"일이다</w>":6835,"기둥":6836,"모바":6837,"성에서</w>":6838,"상태에서</w>":6839,"재배":6840,"접촉":6841,"이전에는</w>":6842,"권력을</w>":6843,"가스</w>":6844,"아프":6845,"알바":6846,"ational</w>":6847,"바키":6848,"순환":6849,"이로써</w>":6850,"그린":6851,"일어났다</w>":6852,"졌다고</w>":6853,"해인</w>":6854,"파가</w>":6855,"보여주":6856,"과도</w>":6857,"비례":6858,"행위</w>":6859,"안드로":6860,"조금</w>":6861,"성우</w>":6862,"문이다</w>":6863,"미국과</w>":6864,"투스</w>":6865,"포켓":6866,"론이</w>":6867,"our":6868,"cod":6869,"않지만</w>":6870,"게임을</w>":6871,"인천</w>":6872,"대통령은</w>":6873,"WW":6874,"시아의</w>":6875,"최대":6876,"나타내":6877,"메르":6878,"Sch":6879,"마리</w>":6880,"최다</w>":6881,"출연하였다</w>":6882,"북쪽으로</w>":6883,"158":6884,"못하였다</w>":6885,"챔피언스리그</w>":6886,"운전":6887,"이른다</w>":6888,"회로</w>":6889,"브라이":6890,"이집트</w>":6891,"못하는</w>":6892,"1953년</w>":6893,"진행되었다</w>":6894,"다다":6895,"어버":6896,"나고":6897,"갖추고</w>":6898,"직업":6899,"황제":6900,"으로의</w>":6901,"이스라엘":6902,"참여했다</w>":6903,"후계":6904,"1943년</w>":6905,"임의의</w>":6906,"분야에서</w>":6907,"Car":6908,"II":6909,"복음":6910,"침략":6911,"크로</w>":6912,"가수이다</w>":6913,"절대":6914,"웨스트":6915,"임이</w>":6916,"집합</w>":6917,"추기":6918,"구단</w>":6919,"하마":6920,"조선총독":6921,"박물관</w>":6922,"시설</w>":6923,"1957년</w>":6924,"나타낸다</w>":6925,"퍼드</w>":6926,"통신</w>":6927,"들었다</w>":6928,"프랭":6929,"편으로</w>":6930,"프로토":6931,"AC":6932,"있었다고</w>":6933,"업체":6934,"포함</w>":6935,"아버지의</w>":6936,"오디":6937,"불가능":6938,"나타나는</w>":6939,"스타디":6940,"eb":6941,"보컬":6942,"프리드리":6943,"County</w>":6944,"사건으로</w>":6945,"ight</w>":6946,"AS":6947,"드라마이다</w>":6948,"론은</w>":6949,"최초</w>":6950,"꼬리":6951,"산과</w>":6952,"진화":6953,"개입":6954,"수익":6955,"점과</w>":6956,"175":6957,"여겨진다</w>":6958,"구단":6959,"67":6960,"Bl":6961,"Joh":6962,"조건을</w>":6963,"당하고</w>":6964,"총리":6965,"태양</w>":6966,"팀인</w>":6967,"무렵":6968,"2012</w>":6969,"수리":6970,"만들고</w>":6971,"공항</w>":6972,"지지를</w>":6973,"모노":6974,"공작</w>":6975,"킬로":6976,"비롯하여</w>":6977,"법인</w>":6978,"내셔널</w>":6979,"구역</w>":6980,"특징이다</w>":6981,"나왔":6982,"이후에도</w>":6983,"경찰</w>":6984,"하게":6985,"루스":6986,"왕조의</w>":6987,"사망한</w>":6988,"발탁":6989,"사항":6990,"전부터</w>":6991,"상태를</w>":6992,"Ph":6993,"라와</w>":6994,"예비":6995,"일제":6996,"이른바</w>":6997,"영상</w>":6998,"등판":6999,"6년":7000,"남겼다</w>":7001,"올라</w>":7002,"ts</w>":7003,"곳을</w>":7004,"나갔다</w>":7005,"설득":7006,"수상하였다</w>":7007,"올림픽에</w>":7008,"어머니는</w>":7009,"시대에는</w>":7010,"일으켰다</w>":7011,"1955년</w>":7012,"서이다</w>":7013,"자들에게</w>":7014,"54":7015,"말하는</w>":7016,"부분에</w>":7017,"시상":7018,"크다</w>":7019,"20년":7020,"ong</w>":7021,"관여":7022,"부동":7023,"죄를</w>":7024,"ure</w>":7025,"Col":7026,"관이다</w>":7027,"남성":7028,"멤버</w>":7029,"블로":7030,"발생하는</w>":7031,"마크</w>":7032,"이슬람</w>":7033,"핀란드</w>":7034,"말은</w>":7035,"서양</w>":7036,"자동</w>":7037,"측의</w>":7038,"투르":7039,"LG</w>":7040,"알고리":7041,"선조</w>":7042,"있는":7043,"관료":7044,"이즈":7045,"카타":7046,"분할":7047,"투수":7048,"176":7049,"부장":7050,"Wh":7051,"강과</w>":7052,"높다</w>":7053,"단일</w>":7054,"들면</w>":7055,"족이</w>":7056,"그리하여</w>":7057,"도덕":7058,"되거나</w>":7059,"들어갔다</w>":7060,"구성</w>":7061,"지니고</w>":7062,"동물</w>":7063,"스탈":7064,"기하":7065,"영의</w>":7066,"전철":7067,"일어나는</w>":7068,"식민지</w>":7069,"만다</w>":7070,"출장":7071,"교도":7072,"처를</w>":7073,"회전":7074,"CP":7075,"기지</w>":7076,"개칭":7077,"피를</w>":7078,"기소":7079,"얼마":7080,"철수":7081,"one</w>":7082,"형식으로</w>":7083,"163":7084,"문제는</w>":7085,"관련이</w>":7086,"불렸다</w>":7087,"출범":7088,"방법은</w>":7089,"글리":7090,"우드</w>":7091,"제에서</w>":7092,"필요하다</w>":7093,"로마의</w>":7094,"SK":7095,"164":7096,"부터의</w>":7097,"없어":7098,"공격</w>":7099,"도마":7100,"보물</w>":7101,"북한</w>":7102,"비로</w>":7103,"열대":7104,"만주":7105,"마이크로소프":7106,"노선을</w>":7107,"따서</w>":7108,"육군":7109,"이게</w>":7110,"인물</w>":7111,"례를</w>":7112,"모여</w>":7113,"얻을</w>":7114,"싸우":7115,"os</w>":7116,"소멸":7117,"의심":7118,"친다</w>":7119,"나라가</w>":7120,"모스크바</w>":7121,"자이언":7122,"영화의</w>":7123,"태양의</w>":7124,"조종":7125,"게르":7126,"반란":7127,"자라":7128,"평론":7129,"완벽":7130,"버스":7131,"주장을</w>":7132,"철도의</w>":7133,"리며</w>":7134,"몸을</w>":7135,"엔진</w>":7136,"선출되었다</w>":7137,"호소":7138,"사용하였다</w>":7139,"운영하는</w>":7140,"체스터</w>":7141,"26</w>":7142,"미터":7143,"주장한다</w>":7144,"베네치":7145,"제10":7146,"호텔":7147,"소득":7148,"일부가</w>":7149,"창단":7150,"영을</w>":7151,"당해</w>":7152,"2010</w>":7153,"게다가</w>":7154,"이르렀다</w>":7155,"빌보드</w>":7156,"참전":7157,"쿠라</w>":7158,"정부를</w>":7159,"ow</w>":7160,"프란시스":7161,"서구</w>":7162,"홈런을</w>":7163,"긴다</w>":7164,"자전":7165,"중한</w>":7166,"타로</w>":7167,"갑자기</w>":7168,"다란</w>":7169,"주최":7170,"화려":7171,"않으면</w>":7172,"이명":7173,"대회를</w>":7174,"전파":7175,"현은</w>":7176,"나기</w>":7177,"디자인</w>":7178,"마는</w>":7179,"10월에</w>":7180,"이루는</w>":7181,"기이다</w>":7182,"Su":7183,"검은":7184,"2008</w>":7185,"대부</w>":7186,"도요":7187,"한번</w>":7188,"향토":7189,"미국은</w>":7190,"편에</w>":7191,"인쇄":7192,"대한민국에서</w>":7193,"168":7194,"사건은</w>":7195,"1위</w>":7196,"대학원</w>":7197,"그것이</w>":7198,"베이징</w>":7199,"황금":7200,"떠났다</w>":7201,"자격":7202,"즉시</w>":7203,"통합</w>":7204,"나치</w>":7205,"둘째</w>":7206,"좌우":7207,"츠의</w>":7208,"보조":7209,"슬로바키":7210,"다리</w>":7211,"맞아</w>":7212,"질은</w>":7213,"호와</w>":7214,"아메리칸</w>":7215,"동과</w>":7216,"타이</w>":7217,"거리에</w>":7218,"소식을</w>":7219,"게임이다</w>":7220,"창원":7221,"함은</w>":7222,"물과</w>":7223,"카가</w>":7224,"ea</w>":7225,"책은</w>":7226,"반응을</w>":7227,"인권":7228,"희망":7229,"발굴":7230,"태풍":7231,"1980년대</w>":7232,"참가했다</w>":7233,"화장":7234,"고기</w>":7235,"달하는</w>":7236,"경기가</w>":7237,"개인의</w>":7238,"유기":7239,"련의</w>":7240,"법적</w>":7241,"아버지가</w>":7242,"성적</w>":7243,"폐쇄":7244,"5개</w>":7245,"연예":7246,"대중</w>":7247,"대상이</w>":7248,"셀로":7249,"격파":7250,"콘텐":7251,"하기":7252,"회의에서</w>":7253,"아래와</w>":7254,"시오":7255,"부사</w>":7256,"MI":7257,"인에게</w>":7258,"광주</w>":7259,"올해의</w>":7260,"코스</w>":7261,"음반이다</w>":7262,"13년</w>":7263,"설립</w>":7264,"혼합":7265,"156":7266,"사용했다</w>":7267,"상태에</w>":7268,"만든다</w>":7269,"초기에</w>":7270,"SP":7271,"인용":7272,"면과</w>":7273,"올림픽에서</w>":7274,"종료</w>":7275,"디아</w>":7276,"이끌었다</w>":7277,"지속적으로</w>":7278,"부대</w>":7279,"근처에</w>":7280,"탄을</w>":7281,"거리는</w>":7282,"본다</w>":7283,"벌어진</w>":7284,"이라며</w>":7285,"1990년대</w>":7286,"교수로</w>":7287,"ory</w>":7288,"개설":7289,"논리":7290,"팀으로</w>":7291,"추가로</w>":7292,"정비":7293,"발발":7294,"선임":7295,"독립을</w>":7296,"3월에</w>":7297,"53":7298,"색이</w>":7299,"이상이</w>":7300,"학교에</w>":7301,"중학교이다</w>":7302,"야의</w>":7303,"차지하고</w>":7304,"사르":7305,"없게</w>":7306,"의혹":7307,"ack</w>":7308,"세인트":7309,"붙여</w>":7310,"당시에</w>":7311,"무기</w>":7312,"연을</w>":7313,"사건의</w>":7314,"레지":7315,"리나</w>":7316,"숨을</w>":7317,"우수</w>":7318,"정체":7319,"시간에</w>":7320,"27</w>":7321,"섬에</w>":7322,"친구</w>":7323,"에드워드</w>":7324,"남부":7325,"주간</w>":7326,"내지</w>":7327,"법무":7328,"갔고</w>":7329,"데스</w>":7330,"1920년</w>":7331,"대기":7332,"렸으며</w>":7333,"15년</w>":7334,"광범":7335,"레드":7336,"자원":7337,"AFC</w>":7338,"꾸준":7339,"반도":7340,"ind":7341,"검토":7342,"시험</w>":7343,"우크라이나</w>":7344,"불을</w>":7345,"명칭을</w>":7346,"액션</w>":7347,"제후":7348,"7년":7349,"ot</w>":7350,"극장</w>":7351,"다수</w>":7352,"본부</w>":7353,"vers":7354,"데이</w>":7355,"최대의</w>":7356,"현역</w>":7357,"보여준다</w>":7358,"70</w>":7359,"부하":7360,"핵심":7361,"복잡한</w>":7362,"제품</w>":7363,"게임의</w>":7364,"age</w>":7365,"tic":7366,"부산광역시</w>":7367,"감이</w>":7368,"함경":7369,"사퇴":7370,"박쥐</w>":7371,"남도의</w>":7372,"라스":7373,"라이트</w>":7374,"사립</w>":7375,"조참":7376,"영화를</w>":7377,"시게":7378,"위반":7379,"제조</w>":7380,"그들을</w>":7381,"사각":7382,"방해":7383,"한성":7384,"전투를</w>":7385,"공개</w>":7386,"소장":7387,"원정":7388,"대학에서</w>":7389,"싸움":7390,"ell</w>":7391,"소한</w>":7392,"보다":7393,"보호</w>":7394,"서와</w>":7395,"리아는</w>":7396,"역임하였다</w>":7397,"병원</w>":7398,"지하철":7399,"겠다고</w>":7400,"얻어</w>":7401,"슈퍼</w>":7402,"98":7403,"사랑을</w>":7404,"센트":7405,"기인</w>":7406,"12월에</w>":7407,"재건":7408,"탈퇴":7409,"이벤":7410,"임무를</w>":7411,"2013</w>":7412,"그곳에서</w>":7413,"일러</w>":7414,"전직</w>":7415,"필드</w>":7416,"인인</w>":7417,"140":7418,"이치":7419,"후에도</w>":7420,"특별자치":7421,"편을</w>":7422,"사기</w>":7423,"가마":7424,"Bo":7425,"말라":7426,"우리가</w>":7427,"위원회는</w>":7428,"pro":7429,"상속":7430,"기록하며</w>":7431,"14년</w>":7432,"com":7433,"로드":7434,"놓았다</w>":7435,"아비":7436,"오픈</w>":7437,"우를</w>":7438,"월의</w>":7439,"ary</w>":7440,"없을</w>":7441,"형에</w>":7442,"서울대학교</w>":7443,"즈가</w>":7444,"출전하여</w>":7445,"아래에</w>":7446,"단순한</w>":7447,"로켓":7448,"소리를</w>":7449,"하기에</w>":7450,"상대식</w>":7451,"노는</w>":7452,"유엔</w>":7453,"MS":7454,"팀에서</w>":7455,"법정":7456,"요시</w>":7457,"입단하였다</w>":7458,"곳은</w>":7459,"2세는</w>":7460,"이론</w>":7461,"베이스</w>":7462,"밝혀졌다</w>":7463,"스튜디오":7464,"식이다</w>":7465,"논의":7466,"개념을</w>":7467,"노스</w>":7468,"률이</w>":7469,"분해":7470,"주인공</w>":7471,"나누어</w>":7472,"프리미어":7473,"Pl":7474,"알레":7475,"신도":7476,"층에</w>":7477,"현을</w>":7478,"ess</w>":7479,"들어가":7480,"간을</w>":7481,"제르":7482,"기록되어</w>":7483,"실이</w>":7484,"터미널":7485,"방위":7486,"손에</w>":7487,"165":7488,"도서관</w>":7489,"승객":7490,"러의</w>":7491,"우가</w>":7492,"스튜디오</w>":7493,"기반</w>":7494,"사진</w>":7495,"창작":7496,"90</w>":7497,"개혁</w>":7498,"ath":7499,"리어</w>":7500,"소리</w>":7501,"수호":7502,"서쪽으로</w>":7503,"저우</w>":7504,"해주":7505,"족은</w>":7506,"파운":7507,"웨일":7508,"1951년</w>":7509,"사건에</w>":7510,"구입":7511,"수산":7512,"가을":7513,"사이다</w>":7514,"1936년</w>":7515,"펼쳐":7516,"관계는</w>":7517,"제일</w>":7518,"전통</w>":7519,"렬한</w>":7520,"환으로</w>":7521,"베를린</w>":7522,"보냈":7523,"캘리포니아</w>":7524,"하기를</w>":7525,"ist":7526,"182":7527,"세계를</w>":7528,"9월에</w>":7529,"이재":7530,"플레이</w>":7531,"복무":7532,"이론을</w>":7533,"조선민주주의인민공화국</w>":7534,"알렉산드":7535,"참가한</w>":7536,"서술":7537,"중을</w>":7538,"본격적으로</w>":7539,"실로</w>":7540,"동쪽으로</w>":7541,"유치":7542,"것이라</w>":7543,"양이</w>":7544,"157":7545,"특징을</w>":7546,"te</w>":7547,"700":7548,"est":7549,"ip":7550,"ard":7551,"1938년</w>":7552,"Ac":7553,"대사</w>":7554,"두는</w>":7555,"사랑</w>":7556,"연습":7557,"마라":7558,"분기":7559,"충분히</w>":7560,"하여금</w>":7561,"IN":7562,"대동":7563,"언제":7564,"콜로":7565,"받으며</w>":7566,"나라에서</w>":7567,"로서는</w>":7568,"있으므로</w>":7569,"집에서</w>":7570,"계열</w>":7571,"기압":7572,"조선시대의</w>":7573,"Wil":7574,"레인":7575,"입고</w>":7576,"오프</w>":7577,"유를</w>":7578,"장치</w>":7579,"광고":7580,"인도의</w>":7581,"비잔":7582,"아웃":7583,"아를</w>":7584,"파로</w>":7585,"시인</w>":7586,"행렬":7587,"진행</w>":7588,"하마</w>":7589,"별도의</w>":7590,"학교에서</w>":7591,"코는</w>":7592,"성직":7593,"단순히</w>":7594,"버지":7595,"마음을</w>":7596,"채널</w>":7597,"계속해서</w>":7598,"기본적으로</w>":7599,"단이다</w>":7600,"권리를</w>":7601,"포함하는</w>":7602,"통상":7603,"오늘날의</w>":7604,"수상</w>":7605,"방에</w>":7606,"선포":7607,"양자":7608,"분으로</w>":7609,"됨에</w>":7610,"이상을</w>":7611,"무네":7612,"연간</w>":7613,"투수</w>":7614,"보이며</w>":7615,"ence</w>":7616,"레알</w>":7617,"주식회사</w>":7618,"밝은</w>":7619,"적도</w>":7620,"필리핀":7621,"당으로</w>":7622,"콜롬":7623,"그녀가</w>":7624,"참여한</w>":7625,"가장":7626,"라면</w>":7627,"중에서도</w>":7628,"국제공항":7629,"피아</w>":7630,"지면</w>":7631,"쿠르":7632,"TO":7633,"위대한</w>":7634,"라우":7635,"정기":7636,"의미하는</w>":7637,"ry</w>":7638,"통계":7639,"거리가</w>":7640,"타르":7641,"파키":7642,"벼슬":7643,"기관이다</w>":7644,"미야</w>":7645,"집단</w>":7646,"발전을</w>":7647,"즈를</w>":7648,"메달</w>":7649,"걸친</w>":7650,"서기</w>":7651,"용의</w>":7652,"정지":7653,"프리</w>":7654,"2009</w>":7655,"백만</w>":7656,"옮겨</w>":7657,"전부</w>":7658,"카리":7659,"문화의</w>":7660,"타이완</w>":7661,"보이지</w>":7662,"여러가지</w>":7663,"시작</w>":7664,"흘러":7665,"노출":7666,"달의</w>":7667,"임무":7668,"조선시대</w>":7669,"먹는</w>":7670,"구매":7671,"일종의</w>":7672,"구사":7673,"조선민주주의인민공화국의</w>":7674,"인물로</w>":7675,"대결":7676,"생태":7677,"망원":7678,"카는</w>":7679,"나타났다</w>":7680,"일으켜</w>":7681,"밀리":7682,"예수":7683,"139":7684,"이외의</w>":7685,"영국에서</w>":7686,"연결되어</w>":7687,"강제":7688,"루트":7689,"2016</w>":7690,"대회는</w>":7691,"결혼</w>":7692,"수원</w>":7693,"연고":7694,"자베":7695,"출신이다</w>":7696,"35</w>":7697,"당에서</w>":7698,"무사":7699,"넣어</w>":7700,"2011</w>":7701,"가요":7702,"뿐이다</w>":7703,"식품":7704,"출연했다</w>":7705,"배경으로</w>":7706,"플로리":7707,"Tr":7708,"ld</w>":7709,"거느":7710,"시오</w>":7711,"영웅":7712,"대수":7713,"재개":7714,"현상을</w>":7715,"기자</w>":7716,"아일랜드":7717,"나가는</w>":7718,"몽골</w>":7719,"정과</w>":7720,"집으로</w>":7721,"청소년</w>":7722,"특별</w>":7723,"28</w>":7724,"그것":7725,"보스":7726,"중성":7727,"하인":7728,"포로</w>":7729,"ann":7730,"절을</w>":7731,"차의</w>":7732,"그렇다면</w>":7733,"최근에는</w>":7734,"MA":7735,"사단</w>":7736,"인근</w>":7737,"145":7738,"78":7739,"이마":7740,"개체":7741,"식에서</w>":7742,"여섯</w>":7743,"공간을</w>":7744,"아이</w>":7745,"자랑":7746,"6월에</w>":7747,"어두":7748,"동양":7749,"상실":7750,"이혼":7751,"codice</w>":7752,"브레이":7753,"진과</w>":7754,"166":7755,"집권":7756,"터키":7757,"구성하는</w>":7758,"잉글랜드":7759,"미드필더":7760,"건축</w>":7761,"였는데</w>":7762,"검사":7763,"병의</w>":7764,"활동에</w>":7765,"버그</w>":7766,"대대":7767,"영업":7768,"코파</w>":7769,"강하게</w>":7770,"대칭":7771,"가치를</w>":7772,"왕조</w>":7773,"팔레":7774,"평가</w>":7775,"2014</w>":7776,"피해</w>":7777,"소속의</w>":7778,"드물":7779,"원인이</w>":7780,"이거나</w>":7781,"해상":7782,"이외에도</w>":7783,"1세의</w>":7784,"76":7785,"었다는</w>":7786,"하나가</w>":7787,"8월에</w>":7788,"보이고</w>":7789,"분노":7790,"신성":7791,"주제":7792,"위원회가</w>":7793,"000명이다</w>":7794,"국회</w>":7795,"오케":7796,"돌아와</w>":7797,"구간</w>":7798,"문화를</w>":7799,"리처드</w>":7800,"성향":7801,"감독은</w>":7802,"름이</w>":7803,"색은</w>":7804,"합니다</w>":7805,"위원회의</w>":7806,"덴마크</w>":7807,"좋지</w>":7808,"이적하였다</w>":7809,"Gr":7810,"방지":7811,"빛을</w>":7812,"해발</w>":7813,"법과</w>":7814,"그룹의</w>":7815,"4월에</w>":7816,"군인</w>":7817,"년이</w>":7818,"발언":7819,"비와</w>":7820,"자체</w>":7821,"재가</w>":7822,"지진</w>":7823,"츠는</w>":7824,"CE":7825,"교는</w>":7826,"해서":7827,"연한</w>":7828,"원래는</w>":7829,"결승전에서</w>":7830,"세력이</w>":7831,"원인</w>":7832,"쪽을</w>":7833,"You</w>":7834,"금의</w>":7835,"그리스의</w>":7836,"판에</w>":7837,"5월에</w>":7838,"쓰러":7839,"하위</w>":7840,"에너지를</w>":7841,"마케도":7842,"3대</w>":7843,"32</w>":7844,"미리</w>":7845,"진에</w>":7846,"iz":7847,"개조":7848,"오버":7849,"독립운동":7850,"로이":7851,"앞으로</w>":7852,"2세의</w>":7853,"골키":7854,"비판을</w>":7855,"길이가</w>":7856,"167":7857,"이라면</w>":7858,"보여주는</w>":7859,"그랑":7860,"1937년</w>":7861,"제도의</w>":7862,"국민</w>":7863,"매주</w>":7864,"2015</w>":7865,"Ad":7866,"특별히</w>":7867,"수준의</w>":7868,"실천":7869,"Se":7870,"권과</w>":7871,"가락":7872,"박근":7873,"하면서도</w>":7874,"교토":7875,"0년까지</w>":7876,"일시":7877,"now":7878,"찾아</w>":7879,"민법</w>":7880,"리히</w>":7881,"삶을</w>":7882,"여성의</w>":7883,"판타":7884,"뛰고</w>":7885,"ach":7886,"먹는다</w>":7887,"아침</w>":7888,"재능":7889,"MP":7890,"LE":7891,"RO":7892,"인민</w>":7893,"단위":7894,"복지":7895,"이어지는</w>":7896,"벨라":7897,"개척":7898,"스트를</w>":7899,"신성</w>":7900,"열리는</w>":7901,"당초</w>":7902,"변형":7903,"그러므로</w>":7904,"보여</w>":7905,"죽음을</w>":7906,"해져</w>":7907,"농구</w>":7908,"불교의</w>":7909,"aw":7910,"아버지":7911,"작전을</w>":7912,"스마트":7913,"동부":7914,"1918년</w>":7915,"1932년</w>":7916,"바가</w>":7917,"테크":7918,"세계에</w>":7919,"데이터를</w>":7920,"Inter":7921,"11월에</w>":7922,"1914년</w>":7923,"예로</w>":7924,"보다도</w>":7925,"1개의</w>":7926,"커다란</w>":7927,"탐사":7928,"해군":7929,"개막":7930,"차에</w>":7931,"ace</w>":7932,"이스라엘</w>":7933,"7월에</w>":7934,"8년부터</w>":7935,"타운":7936,"루는</w>":7937,"소수</w>":7938,"연장</w>":7939,"혼란":7940,"시라":7941,"주장하는</w>":7942,"의사</w>":7943,"망명":7944,"숙종</w>":7945,"시작했고</w>":7946,"인가</w>":7947,"이용할</w>":7948,"모가</w>":7949,"과학기술":7950,"고등학교를</w>":7951,"BA</w>":7952,"개찰":7953,"개는</w>":7954,"그로":7955,"our</w>":7956,"돌려":7957,"일련의</w>":7958,"학은</w>":7959,"플레이오프":7960,"불안":7961,"주된</w>":7962,"파와</w>":7963,"발간":7964,"공업</w>":7965,"터널":7966,"힌다</w>":7967,"자료를</w>":7968,"공군</w>":7969,"기능</w>":7970,"성이다</w>":7971,"원작":7972,"이념":7973,"타이거":7974,"외부</w>":7975,"동맹</w>":7976,"작품의</w>":7977,"olog":7978,"개국":7979,"노이":7980,"뮤지컬</w>":7981,"하라는</w>":7982,"다를</w>":7983,"법률</w>":7984,"호르":7985,"배포":7986,"주전</w>":7987,"위치에</w>":7988,"대부분을</w>":7989,"미국으로</w>":7990,"성공했다</w>":7991,"조사를</w>":7992,"지대":7993,"초의</w>":7994,"LG":7995,"빨리</w>":7996,"용어는</w>":7997,"5년까지</w>":7998,"끝으로</w>":7999}