{"<pad>":0,"<unk>":1,"<bos>":2,"<eos>":3,"<sep>":4,"<cls>":5,"<mask>":6,"!":7,"'":8,",":9,"-":10,".":11,"0":12,"1":13,"2":14,"3":15,"4":16,"5":17,"6":18,"7":19,"8":20,"9":21,";":22,"?":23,"A":24,"B":25,"C":26,"N":27,"S":28,"X":29,"a":30,"n":31,"s":32,"~":33,"…":34,"ㅋ":35,"ㅎ":36,"ㅜ":37,"ㅠ":38,"가":39,"각":40,"간":41,"갈":42,"감":43,"갑":44,"값":45,"갔":46,"강":47,"갖":48,"같":49,"갚":50,"개":51,"객":52,"갠":53,"갱":54,"걔":55,"거":56,"걱":57,"건":58,"걷":59,"걸":60,"검":61,"겁":62,"것":63,"겉":64,"게":65,"겐":66,"겜":67,"겟":68,"겠":69,"겨":70,"격":71,"겪":72,"견":73,"결":74,"겹":75,"겼":76,"경":77,"곁":78,"계":79,"고":80,"곡":81,"곤":82,"곧":83,"골":84,"곰":85,"곱":86,"곳":87,"공":88,"과":89,"관":90,"광":91,"괜":92,"괴":93,"교":94,"구":95,"국":96,"군":97,"굳":98,"굴":99,"궁":100,"궈":101,"권":102,"귀":103,"귄":104,"귈":105,"규":106,"그":107,"극":108,"근":109,"글":110,"긁":111,"금":112,"급":113,"긋":114,"긍":115,"기":116,"긴":117,"길":118,"김":119,"깊":120,"까":121,"깍":122,"깎":123,"깐":124,"깔":125,"깜":126,"깝":127,"깨":128,"깬":129,"깰":130,"꺼":131,"껄":132,"껏":133,"께":134,"껴":135,"꼈":136,"꼬":137,"꼭":138,"꼰":139,"꼼":140,"꽃":141,"꽉":142,"꽝":143,"꽤":144,"꾸":145,"꾹":146,"꾼":147,"꿀":148,"꿈":149,"꿔":150,"꿨":151,"꿰":152,"뀌":153,"뀔":154,"끄":155,"끈":156,"끊":157,"끌":158,"끓":159,"끔":160,"끗":161,"끝":162,"끼":163,"낀":164,"낄":165,"낌":166,"나":167,"낙":168,"낚":169,"난":170,"날":171,"남":172,"납":173,"낫":174,"났":175,"낭":176,"낮":177,"낳":178,"내":179,"낸":180,"낼":181,"냄":182,"냈":183,"냉":184,"냐":185,"냥":186,"너":187,"넋":188,"넌":189,"널":190,"넓":191,"넘":192,"넣":193,"네":194,"넷":195,"녀":196,"녁":197,"년":198,"념":199,"녕":200,"노":201,"녹":202,"놀":203,"놈":204,"농":205,"높":206,"놓":207,"놔":208,"놨":209,"뇌":210,"누":211,"눅":212,"눈":213,"눌":214,"눕":215,"눠":216,"뉴":217,"느":218,"는":219,"늘":220,"늙":221,"늠":222,"능":223,"늦":224,"니":225,"닉":226,"닌":227,"닐":228,"님":229,"닝":230,"다":231,"닥":232,"단":233,"닫":234,"달":235,"닮":236,"담":237,"답":238,"닷":239,"당":240,"닿":241,"대":242,"댄":243,"댈":244,"댓":245,"더":246,"덕":247,"던":248,"덜":249,"덤":250,"덥":251,"덧":252,"데":253,"뎌":254,"도":255,"독":256,"돈":257,"돋":258,"돌":259,"돕":260,"동":261,"돼":262,"됐":263,"되":264,"된":265,"될":266,"됨":267,"됩":268,"됬":269,"두":270,"둔":271,"둘":272,"둠":273,"둥":274,"둬":275,"뒀":276,"뒤":277,"뒷":278,"뒹":279,"드":280,"득":281,"든":282,"듣":283,"들":284,"듬":285,"듭":286,"듯":287,"등":288,"디":289,"딘":290,"딛":291,"딜":292,"딩":293,"딪":294,"따":295,"딱":296,"딴":297,"딸":298,"땀":299,"땅":300,"때":301,"땐":302,"땜":303,"땡":304,"떠":305,"떡":306,"떤":307,"떨":308,"떴":309,"떻":310,"떼":311,"또":312,"똑":313,"똥":314,"뚝":315,"뚫":316,"뛰":317,"뜨":318,"뜬":319,"뜰":320,"뜻":321,"띄":322,"띠":323,"라":324,"락":325,"란":326,"랄":327,"람":328,"랍":329,"랐":330,"랑":331,"랖":332,"래":333,"랙":334,"랜":335,"램":336,"랫":337,"랬":338,"량":339,"러":340,"런":341,"럴":342,"럼":343,"럽":344,"렀":345,"렇":346,"레":347,"렌":348,"렐":349,"렘":350,"렛":351,"렜":352,"려":353,"력":354,"련":355,"렬":356,"렴":357,"렵":358,"렸":359,"령":360,"례":361,"로":362,"록":363,"론":364,"롤":365,"롭":366,"롱":367,"뢰":368,"료":369,"루":370,"룩":371,"뤄":372,"류":373,"률":374,"르":375,"륵":376,"른":377,"를":378,"름":379,"릅":380,"릇":381,"릎":382,"리":383,"린":384,"릴":385,"림":386,"립":387,"릿":388,"링":389,"마":390,"막":391,"만":392,"많":393,"말":394,"맘":395,"맙":396,"맛":397,"망":398,"맞":399,"맡":400,"매":401,"맥":402,"맨":403,"맴":404,"맷":405,"맺":406,"머":407,"먹":408,"먼":409,"멀":410,"멈":411,"멋":412,"멍":413,"메":414,"멘":415,"며":416,"면":417,"명":418,"몇":419,"모":420,"목":421,"몫":422,"몬":423,"몰":424,"몸":425,"못":426,"몽":427,"묘":428,"무":429,"묵":430,"문":431,"묻":432,"물":433,"뭐":434,"뭔":435,"뭘":436,"미":437,"민":438,"믿":439,"밀":440,"밉":441,"밌":442,"밍":443,"밑":444,"바":445,"박":446,"밖":447,"반":448,"받":449,"발":450,"밝":451,"밟":452,"밤":453,"밥":454,"방":455,"배":456,"백":457,"뱃":458,"버":459,"벅":460,"번":461,"벌":462,"범":463,"법":464,"벗":465,"벚":466,"베":467,"벤":468,"벨":469,"벼":470,"벽":471,"변":472,"별":473,"볍":474,"병":475,"보":476,"복":477,"볶":478,"본":479,"볼":480,"봄":481,"봅":482,"봇":483,"봉":484,"봐":485,"봤":486,"부":487,"북":488,"분":489,"불":490,"붙":491,"브":492,"블":493,"비":494,"빈":495,"빌":496,"빙":497,"빚":498,"빛":499,"빠":500,"빡":501,"빨":502,"빴":503,"빵":504,"빼":505,"뻐":506,"뻑":507,"뻔":508,"뽀":509,"뽑":510,"뿌":511,"뿐":512,"쁘":513,"쁜":514,"쁠":515,"쁨":516,"삐":517,"사":518,"삭":519,"산":520,"살":521,"삶":522,"삼":523,"샀":524,"상":525,"새":526,"색":527,"샌":528,"샜":529,"생":530,"샤":531,"서":532,"석":533,"선":534,"설":535,"섬":536,"섭":537,"성":538,"세":539,"센":540,"셀":541,"셔":542,"션":543,"셨":544,"소":545,"속":546,"손":547,"솔":548,"송":549,"쇼":550,"수":551,"숙":552,"순":553,"술":554,"숨":555,"숫":556,"숭":557,"쉬":558,"쉴":559,"쉽":560,"슈":561,"스":562,"슨":563,"슬":564,"슴":565,"습":566,"슷":567,"승":568,"시":569,"식":570,"신":571,"실":572,"싫":573,"심":574,"십":575,"싱":576,"싶":577,"싸":578,"싹":579,"싼":580,"쌈":581,"쌍":582,"쌓":583,"쌩":584,"써":585,"썩":586,"썸":587,"썹":588,"썼":589,"쎄":590,"쏟":591,"쏠":592,"쐬":593,"쑤":594,"쑥":595,"쓰":596,"쓴":597,"쓸":598,"씀":599,"씁":600,"씌":601,"씨":602,"씩":603,"씹":604,"씻":605,"아":606,"악":607,"안":608,"앉":609,"않":610,"알":611,"압":612,"앗":613,"았":614,"앞":615,"애":616,"액":617,"앨":618,"앱":619,"야":620,"약":621,"양":622,"얘":623,"어":624,"억":625,"언":626,"얻":627,"얼":628,"얽":629,"엄":630,"업":631,"없":632,"엇":633,"었":634,"엉":635,"엊":636,"에":637,"엔":638,"엠":639,"여":640,"역":641,"엮":642,"연":643,"열":644,"염":645,"엽":646,"엿":647,"였":648,"영":649,"옆":650,"예":651,"오":652,"옥":653,"온":654,"올":655,"옳":656,"옴":657,"옵":658,"옷":659,"와":660,"완":661,"왓":662,"왔":663,"왕":664,"왜":665,"왠":666,"왤":667,"외":668,"요":669,"욕":670,"욜":671,"용":672,"우":673,"욱":674,"운":675,"울":676,"움":677,"웃":678,"워":679,"원":680,"월":681,"웠":682,"웨":683,"웬":684,"웹":685,"웽":686,"위":687,"윗":688,"유":689,"육":690,"율":691,"으":692,"은":693,"을":694,"음":695,"응":696,"의":697,"이":698,"익":699,"인":700,"일":701,"읽":702,"잃":703,"임":704,"입":705,"잇":706,"있":707,"잊":708,"자":709,"작":710,"잔":711,"잖":712,"잘":713,"잠":714,"잡":715,"잤":716,"장":717,"재":718,"잼":719,"쟁":720,"저":721,"적":722,"전":723,"절":724,"점":725,"접":726,"정":727,"젖":728,"제":729,"젠":730,"젤":731,"젯":732,"져":733,"졋":734,"졌":735,"조":736,"족":737,"존":738,"졸":739,"좀":740,"종":741,"좋":742,"좌":743,"죄":744,"죠":745,"주":746,"죽":747,"준":748,"줄":749,"줌":750,"중":751,"줘":752,"줬":753,"쥐":754,"즈":755,"즐":756,"즘":757,"증":758,"지":759,"직":760,"진":761,"질":762,"짐":763,"집":764,"짓":765,"징":766,"짚":767,"짜":768,"짝":769,"짠":770,"짧":771,"짰":772,"짱":773,"째":774,"짼":775,"쩌":776,"쩍":777,"쩔":778,"쪄":779,"쪼":780,"쪽":781,"쫄":782,"쫌":783,"쭉":784,"쭤":785,"쯤":786,"찌":787,"찍":788,"찐":789,"찔":790,"찜":791,"찢":792,"차":793,"착":794,"찬":795,"찮":796,"찰":797,"참":798,"찼":799,"창":800,"찾":801,"채":802,"책":803,"챙":804,"처":805,"척":806,"천":807,"철":808,"첨":809,"첩":810,"첫":811,"청":812,"체":813,"쳐":814,"쳤":815,"초":816,"촉":817,"총":818,"촬":819,"최":820,"추":821,"축":822,"춘":823,"출":824,"춤":825,"춥":826,"충":827,"춰":828,"취":829,"츠":830,"측":831,"층":832,"치":833,"친":834,"칠":835,"침":836,"칭":837,"카":838,"칼":839,"캬":840,"커":841,"컥":842,"컨":843,"컴":844,"컷":845,"컸":846,"케":847,"켜":848,"켠":849,"켰":850,"코":851,"콕":852,"콘":853,"콜":854,"콤":855,"콩":856,"쿠":857,"쿨":858,"쿵":859,"퀴":860,"크":861,"큰":862,"클":863,"큼":864,"킁":865,"키":866,"킨":867,"킬":868,"타":869,"탁":870,"탄":871,"탈":872,"탐":873,"탓":874,"탔":875,"탕":876,"태":877,"택":878,"터":879,"턱":880,"턴":881,"털":882,"텀":883,"텁":884,"텅":885,"테":886,"텐":887,"텔":888,"템":889,"텨":890,"토":891,"톡":892,"톱":893,"통":894,"퇴":895,"투":896,"툭":897,"툰":898,"툴":899,"툼":900,"퉁":901,"트":902,"특":903,"틀":904,"틈":905,"틋":906,"티":907,"틱":908,"팀":909,"팁":910,"팅":911,"파":912,"팍":913,"판":914,"팔":915,"팠":916,"패":917,"팩":918,"팬":919,"팸":920,"퍼":921,"펑":922,"페":923,"펭":924,"펴":925,"편":926,"평":927,"포":928,"폭":929,"폰":930,"폼":931,"표":932,"푸":933,"푹":934,"푼":935,"풀":936,"품":937,"풋":938,"풍":939,"퓨":940,"프":941,"픈":942,"플":943,"픔":944,"피":945,"필":946,"핑":947,"하":948,"학":949,"한":950,"할":951,"함":952,"합":953,"핫":954,"항":955,"해":956,"핸":957,"햇":958,"했":959,"행":960,"향":961,"허":962,"헌":963,"헐":964,"험":965,"헛":966,"헤":967,"헥":968,"헬":969,"헷":970,"헹":971,"혀":972,"현":973,"혔":974,"형":975,"호":976,"혹":977,"혼":978,"홀":979,"홈":980,"화":981,"확":982,"환":983,"활":984,"홧":985,"황":986,"회":987,"획":988,"효":989,"후":990,"훈":991,"훔":992,"휘":993,"휴":994,"흐":995,"흑":996,"흔":997,"흘":998,"흠":999,"흡":1000,"흥":1001,"희":1002,"히":1003,"힌":1004,"힐":1005,"힘":1006,"가</w>":1007,"지</w>":1008,"네</w>":1009,"도</w>":1010,"니</w>":1011,"서</w>":1012,"를</w>":1013,"이</w>":1014,"요</w>":1015,"는</w>":1016,"어</w>":1017,"간</w>":1018,"전</w>":1019,"곤</w>":1020,"야</w>":1021,"일</w>":1022,"다</w>":1023,"한</w>":1024,"해</w>":1025,"게</w>":1026,"고</w>":1027,"떡</w>":1028,"살</w>":1029,"워</w>":1030,"행</w>":1031,"데</w>":1032,"나</w>":1033,"과</w>":1034,"에</w>":1035,"의</w>":1036,"줘</w>":1037,"테</w>":1038,"만</w>":1039,"을</w>":1040,"라</w>":1041,"쫌</w>":1042,"운</w>":1043,"린</w>":1044,"판</w>":1045,"원</w>":1046,"까</w>":1047,"턴</w>":1048,"죠</w>":1049,"물</w>":1050,"음</w>":1051,"피</w>":1052,"움</w>":1053,"져</w>":1054,"든</w>":1055,"리</w>":1056,"할</w>":1057,"후</w>":1058,"치</w>":1059,"대</w>":1060,"랑</w>":1061,"날</w>":1062,"차</w>":1063,"인</w>":1064,"진</w>":1065,"번</w>":1066,"건</w>":1067,"걸</w>":1068,"단</w>":1069,"거</w>":1070,"은</w>":1071,"남</w>":1072,"질</w>":1073,"려</w>":1074,"드</w>":1075,"로</w>":1076,"들</w>":1077,"활</w>":1078,"묵</w>":1079,"엔</w>":1080,"톱</w>":1081,"스</w>":1082,"페</w>":1083,"길</w>":1084,"뒤</w>":1085,"꿈</w>":1086,"아</w>":1087,"퍼</w>":1088,"면</w>":1089,"뀔</w>":1090,"ㅜ</w>":1091,"던</w>":1092,"약</w>":1093,"애</w>":1094,"와</w>":1095,"째</w>":1096,"기</w>":1097,"레</w>":1098,"봐</w>":1099,"발</w>":1100,"중</w>":1101,"커</w>":1102,"러</w>":1103,"얼</w>":1104,"정</w>":1105,"시</w>":1106,"씨</w>":1107,"바</w>":1108,"깐</w>":1109,"빵</w>":1110,"복</w>":1111,"듯</w>":1112,"찬</w>":1113,"녕</w>":1114,"쯤</w>":1115,"여</w>":1116,"벌</w>":1117,"소</w>":1118,"짐</w>":1119,"적</w>":1120,"디</w>":1121,"내</w>":1122,"끼</w>":1123,"코</w>":1124,"핑</w>":1125,"평</w>":1126,"혀</w>":1127,"며</w>":1128,"냐</w>":1129,"것</w>":1130,"금</w>":1131,"덧</w>":1132,"콩</w>":1133,"울</w>":1134,"두</w>":1135,"함</w>":1136,"침</w>":1137,"청</w>":1138,"실</w>":1139,"료</w>":1140,"터</w>":1141,"밤</w>":1142,"줄</w>":1143,"히</w>":1144,"좀</w>":1145,"릴</w>":1146,"구</w>":1147,"럴</w>":1148,"찌</w>":1149,"덕</w>":1150,"럼</w>":1151,"관</w>":1152,"매</w>":1153,"심</w>":1154,"쩍</w>":1155,"란</w>":1156,"자</w>":1157,"담</w>":1158,"득</w>":1159,"통</w>":1160,"비</w>":1161,"될</w>":1162,"출</w>":1163,"폰</w>":1164,"트</w>":1165,"성</w>":1166,"력</w>":1167,"몬</w>":1168,"표</w>":1169,"주</w>":1170,"안</w>":1171,"필</w>":1172,"미</w>":1173,"름</w>":1174,"노</w>":1175,"딜</w>":1176,"갈</w>":1177,"때</w>":1178,"카</w>":1179,"상</w>":1180,"ㅎ</w>":1181,"글</w>":1182,"멍</w>":1183,"된</w>":1184,"락</w>":1185,"으</w>":1186,"긴</w>":1187,"큼</w>":1188,"말</w>":1189,"맥</w>":1190,"수</w>":1191,"플</w>":1192,"입</w>":1193,"캬</w>":1194,"킬</w>":1195,"획</w>":1196,"개</w>":1197,"증</w>":1198,"렴</w>":1199,"픔</w>":1200,"생</w>":1201,"뿐</w>":1202,"봄</w>":1203,"꽃</w>":1204,"급</w>":1205,"첨</w>":1206,"신</w>":1207,"식</w>":1208,"속</w>":1209,"겨</w>":1210,"제</w>":1211,"점</w>":1212,"쌍</w>":1213,"꾼</w>":1214,"슨</w>":1215,"낼</w>":1216,"래</w>":1217,"처</w>":1218,"꿀</w>":1219,"줌</w>":1220,"등</w>":1221,"갑</w>":1222,"임</w>":1223,"옆</w>":1224,"영</w>":1225,"쁠</w>":1226,"위</w>":1227,"년</w>":1228,"불</w>":1229,"염</w>":1230,"사</w>":1231,"람</w>":1232,"께</w>":1233,"선</w>":1234,"껴</w>":1235,"흡</w>":1236,"늘</w>":1237,"포</w>":1238,"렘</w>":1239,"케</w>":1240,"보</w>":1241,"쳐</w>":1242,"장</w>":1243,"향</w>":1244,"뻔</w>":1245,"록</w>":1246,"량</w>":1247,"팩</w>":1248,"륵</w>":1249,"별</w>":1250,"분</w>":1251,"달</w>":1252,"견</w>":1253,"춰</w>":1254,"ㅠ</w>":1255,"혹</w>":1256,"난</w>":1257,"회</w>":1258,"용</w>":1259,"습</w>":1260,"근</w>":1261,"절</w>":1262,"녀</w>":1263,"조</w>":1264,"팅</w>":1265,"꿔</w>":1266,"그</w>":1267,"루</w>":1268,"뭔</w>":1269,"덜</w>":1270,"육</w>":1271,"준</w>":1272,"힘</w>":1273,"친</w>":1274,"품</w>":1275,"뽀</w>":1276,"감</w>":1277,"강</w>":1278,"귄</w>":1279,"빠</w>":1280,"땐</w>":1281,"쑥</w>":1282,"올</w>":1283,"문</w>":1284,"모</w>":1285,"방</w>":1286,"새</w>":1287,"귈</w>":1288,"켜</w>":1289,"작</w>":1290,"맘</w>":1291,"답</w>":1292,"푹</w>":1293,"볼</w>":1294,"교</w>":1295,"옷</w>":1296,"너</w>":1297,"결</w>":1298,"경</w>":1299,"반</w>":1300,"짓</w>":1301,"끝</w>":1302,"롱</w>":1303,"꺼</w>":1304,"법</w>":1305,"밥</w>":1306,"무</w>":1307,"마</w>":1308,"쁜</w>":1309,"둔</w>":1310,"호</w>":1311,"돼</w>":1312,"명</w>":1313,"따</w>":1314,"눈</w>":1315,"링</w>":1316,"머</w>":1317,"태</w>":1318,"변</w>":1319,"유</w>":1320,"동</w>":1321,"외</w>":1322,"각</w>":1323,"룩</w>":1324,"앗</w>":1325,"화</w>":1326,"션</w>":1327,"클</w>":1328,"킨</w>":1329,"짠</w>":1330,"엇</w>":1331,"컷</w>":1332,"참</w>":1333,"칠</w>":1334,"세</w>":1335,"죄</w>":1336,"써</w>":1337,"놀</w>":1338,"즈</w>":1339,"슬</w>":1340,"배</w>":1341,"타</w>":1342,"석</w>":1343,"겐</w>":1344,"뚝</w>":1345,"온</w>":1346,"철</w>":1347,"텔</w>":1348,"둬</w>":1349,"군</w>":1350,"빡</w>":1351,"크</w>":1352,"톡</w>":1353,"당</w>":1354,"림</w>":1355,"짜</w>":1356,"땅</w>":1357,"싸</w>":1358,"례</w>":1359,"브</w>":1360,"류</w>":1361,"환</w>":1362,"택</w>":1363,"템</w>":1364,"곧</w>":1365,"본</w>":1366,"츠</w>":1367,"런</w>":1368,"북</w>":1369,"익</w>":1370,"못</w>":1371,"흠</w>":1372,"앞</w>":1373,"계</w>":1374,"휴</w>":1375,"딩</w>":1376,"풍</w>":1377,"술</w>":1378,"송</w>":1379,"업</w>":1380,"연</w>":1381,"딱</w>":1382,"잡</w>":1383,"닉</w>":1384,"S</w>":1385,"메</w>":1386,"ㅋ</w>":1387,"막</w>":1388,"혼</w>":1389,"빨</w>":1390,"됨</w>":1391,"쁨</w>":1392,"썸</w>":1393,"똑</w>":1394,"더</w>":1395,"월</w>":1396,"척</w>":1397,"쭉</w>":1398,"얘</w>":1399,"파</w>":1400,"박</w>":1401,"체</w>":1402,"씩</w>":1403,"오</w>":1404,"펑</w>":1405,"재</w>":1406,"험</w>":1407,"양</w>":1408,"깨</w>":1409,"형</w>":1410,"콕</w>":1411,"잘</w>":1412,"른</w>":1413,"책</w>":1414,"삶</w>":1415,"부</w>":1416,"우</w>":1417,"냥</w>":1418,"뢰</w>":1419,"취</w>":1420,"짱</w>":1421,"님</w>":1422,"왜</w>":1423,"하</w>":1424,"쓸</w>":1425,"토</w>":1426,"집</w>":1427,"쌈</w>":1428,"탕</w>":1429,"흘</w>":1430,"접</w>":1431,"찮</w>":1432,"넘</w>":1433,"렐</w>":1434,"되</w>":1435,"설</w>":1436,"천</w>":1437,"순</w>":1438,"엉</w>":1439,"빛</w>":1440,"닌</w>":1441,"쏠</w>":1442,"쎄</w>":1443,"쪽</w>":1444,"골</w>":1445,"직</w>":1446,"억</w>":1447,"깰</w>":1448,"!</w>":1449,"몸</w>":1450,"넌</w>":1451,"숨</w>":1452,"몇</w>":1453,"널</w>":1454,"팬</w>":1455,"힐</w>":1456,"헥</w>":1457,"역</w>":1458,"낀</w>":1459,"셔</w>":1460,"편</w>":1461,"푼</w>":1462,"련</w>":1463,"낄</w>":1464,"항</w>":1465,"목</w>":1466,"산</w>":1467,"쓴</w>":1468,"느</w>":1469,"꾸</w>":1470,"풀</w>":1471,"족</w>":1472,"능</w>":1473,"탐</w>":1474,"낸</w>":1475,"닷</w>":1476,"황</w>":1477,";</w>":1478,"툭</w>":1479,",</w>":1480,"꼭</w>":1481,"팔</w>":1482,"빚</w>":1483,"옴</w>":1484,"십</w>":1485,"쉬</w>":1486,"저</w>":1487,"꾹</w>":1488,"킁</w>":1489,"쩔</w>":1490,"땀</w>":1491,"싼</w>":1492,"뭐</w>":1493,"극</w>":1494,"탈</w>":1495,"망</w>":1496,"춤</w>":1497,"투</w>":1498,"찔</w>":1499,"합</w>":1500,"국</w>":1501,"2</w>":1502,"…</w>":1503,"찐</w>":1504,"잼</w>":1505,"싹</w>":1506,"궈</w>":1507,"격</w>":1508,"알</w>":1509,"뜻</w>":1510,"응</w>":1511,"병</w>":1512,"툰</w>":1513,"쿠</w>":1514,"닐</w>":1515,"승</w>":1516,"팸</w>":1517,"프</w>":1518,"녁</w>":1519,"헤</w>":1520,"키</w>":1521,"찍</w>":1522,"곡</w>":1523,"즘</w>":1524,"램</w>":1525,"싱</w>":1526,"납</w>":1527,"팍</w>":1528,"놈</w>":1529,"창</w>":1530,"돈</w>":1531,"궁</w>":1532,"탄</w>":1533,"랜</w>":1534,"욕</w>":1535,"독</w>":1536,"공</w>":1537,"큰</w>":1538,"효</w>":1539,"뜰</w>":1540,"-</w>":1541,"랄</w>":1542,"언</w>":1543,"곳</w>":1544,"몽</w>":1545,"첫</w>":1546,"학</w>":1547,"낳</w>":1548,"겜</w>":1549,"씹</w>":1550,"잔</w>":1551,"뉴</w>":1552,"슴</w>":1553,"짝</w>":1554,"초</w>":1555,"칭</w>":1556,"콜</w>":1557,"~</w>":1558,"확</w>":1559,"누</w>":1560,"댄</w>":1561,"젤</w>":1562,"깜</w>":1563,"C</w>":1564,"률</w>":1565,"쉽</w>":1566,"퇴</w>":1567,"악</w>":1568,"흥</w>":1569,"념</w>":1570,"콘</w>":1571,"퀴</w>":1572,"밀</w>":1573,"껏</w>":1574,"럽</w>":1575,"'</w>":1576,"빈</w>":1577,"층</w>":1578,"덤</w>":1579,"0</w>":1580,"굴</w>":1581,"떠</w>":1582,"s</w>":1583,"징</w>":1584,"김</w>":1585,"벽</w>":1586,"픈</w>":1587,"닝</w>":1588,"틀</w>":1589,"썹</w>":1590,"떤</w>":1591,"젠</w>":1592,"값</w>":1593,"뻐</w>":1594,"민</w>":1595,"버</w>":1596,"렛</w>":1597,"열</w>":1598,"펴</w>":1599,"딴</w>":1600,"맛</w>":1601,"낌</w>":1602,"떨</w>":1603,"돌</w>":1604,"론</w>":1605,"섭</w>":1606,"땡</w>":1607,"먼</w>":1608,"뭘</w>":1609,"밍</w>":1610,"또</w>":1611,"허</w>":1612,"욱</w>":1613,"깍</w>":1614,"앨</w>":1615,"귀</w>":1616,"툼</w>":1617,"놔</w>":1618,"릎</w>":1619,"끌</w>":1620,"폭</w>":1621,"색</w>":1622,"5</w>":1623,"껄</w>":1624,"냄</w>":1625,"씀</w>":1626,"예</w>":1627,"꽉</w>":1628,"백</w>":1629,"듬</w>":1630,"현</w>":1631,"채</w>":1632,"티</w>":1633,"맨</w>":1634,"쟁</w>":1635,"빙</w>":1636,"충</w>":1637,"찢</w>":1638,"팁</w>":1639,"릿</w>":1640,"랖</w>":1641,"닥</w>":1642,"잠</w>":1643,"센</w>":1644,"댈</w>":1645,"둘</w>":1646,"걔</w>":1647,"농</w>":1648,"손</w>":1649,"퉁</w>":1650,"꽤</w>":1651,"털</w>":1652,"쪄</w>":1653,"컥</w>":1654,"랍</w>":1655,"쉴</w>":1656,"꽝</w>":1657,".</w>":1658,"종</w>":1659,"끔</w>":1660,"탁</w>":1661,"패</w>":1662,"폼</w>":1663,"릇</w>":1664,"넷</w>":1665,"힌</w>":1666,"엽</w>":1667,"깬</w>":1668,"첩</w>":1669,"?</w>":1670,"령</w>":1671,"착</w>":1672,"세요</w>":1673,"보세요</w>":1674,"예요</w>":1675,"하는</w>":1676,"거예요</w>":1677,"어요</w>":1678,"좋아":1679,"사랑":1680,"네요</w>":1681,"사람":1682,"니다</w>":1683,"는데</w>":1684,"해보세요</w>":1685,"생각":1686,"봐요</w>":1687,"친구":1688,"아요</w>":1689,"하고</w>":1690,"너무</w>":1691,"마음":1692,"좋아하는</w>":1693,"헤어":1694,"하지</w>":1695,"해요</w>":1696,"연락":1697,"여자":1698,"으면</w>":1699,"나봐요</w>":1700,"남자":1701,"많이</w>":1702,"힘들":1703,"하세요</w>":1704,"이별":1705,"에요</w>":1706,"좋은</w>":1707,"는게</w>":1708,"사람</w>":1709,"으로</w>":1710,"싶어</w>":1711,"같아요</w>":1712,"시간":1713,"있어요</w>":1714,"까요</w>":1715,"한테</w>":1716,"주세요</w>":1717,"에서</w>":1718,"하면</w>":1719,"겠어요</w>":1720,"같아</w>":1721,"있을</w>":1722,"친구가</w>":1723,"이에요</w>":1724,"을까</w>":1725,"마세요</w>":1726,"만나":1727,"하게</w>":1728,"겠네요</w>":1729,"사람이</w>":1730,"습니다</w>":1731,"괜찮":1732,"자신":1733,"해도</w>":1734,"아니":1735,"에게</w>":1736,"있는</w>":1737,"할까</w>":1738,"지만</w>":1739,"게요</w>":1740,"내가</w>":1741,"라고</w>":1742,"모르":1743,"이제</w>":1744,"가봐요</w>":1745,"어떻":1746,"마음이</w>":1747,"필요":1748,"싶다</w>":1749,"것도</w>":1750,"이별</w>":1751,"다른</w>":1752,"다고</w>":1753,"다면</w>":1754,"어떻게</w>":1755,"겠죠</w>":1756,"겠어</w>":1757,"이네요</w>":1758,"수도</w>":1759,"다시</w>":1760,"당신":1761,"해야":1762,"시간이</w>":1763,"기다":1764,"사랑</w>":1765,"없어</w>":1766,"은데</w>":1767,"오늘</w>":1768,"정말</w>":1769,"인데</w>":1770,"중요":1771,"같이</w>":1772,"좋을</w>":1773,"정리":1774,"있어</w>":1775,"면서</w>":1776,"제가</w>":1777,"행복":1778,"어보세요</w>":1779,"이랑</w>":1780,"지도</w>":1781,"라요</w>":1782,"렇게</w>":1783,"짝남":1784,"연애":1785,"겠지</w>":1786,"해주세요</w>":1787,"없어요</w>":1788,"이라":1789,"자꾸</w>":1790,"보다</w>":1791,"돼요</w>":1792,"해서</w>":1793,"이죠</w>":1794,"합니다</w>":1795,"하는게</w>":1796,"헤어진":1797,"보고</w>":1798,"보는</w>":1799,"이야":1800,"친구</w>":1801,"볼까</w>":1802,"니까요</w>":1803,"결혼":1804,"바랄":1805,"하는":1806,"했어</w>":1807,"오늘":1808,"찾아":1809,"하는데</w>":1810,"바랄게요</w>":1811,"겠다</w>":1812,"사귀":1813,"봅니다</w>":1814,"일이</w>":1815,"있을까</w>":1816,"진짜</w>":1817,"헤어지":1818,"고민":1819,"없는</w>":1820,"될까</w>":1821,"먼저</w>":1822,"저도</w>":1823,"드세요</w>":1824,"이었":1825,"고백":1826,"이야</w>":1827,"하죠</w>":1828,"그런</w>":1829,"먹고</w>":1830,"준비":1831,"혼자</w>":1832,"헤어진지</w>":1833,"들어":1834,"에는</w>":1835,"후회":1836,"가는</w>":1837,"나를</w>":1838,"아무":1839,"좋아요</w>":1840,"야지</w>":1841,"자고</w>":1842,"마음을</w>":1843,"여자친구가</w>":1844,"대로</w>":1845,"기가</w>":1846,"지금":1847,"지는</w>":1848,"계속</w>":1849,"데이":1850,"만큼</w>":1851,"조금":1852,"힘드":1853,"남자친구가</w>":1854,"랍니다</w>":1855,"들이</w>":1856,"받아":1857,"해야</w>":1858,"려고</w>":1859,"시작":1860,"않아요</w>":1861,"어도</w>":1862,"짝녀":1863,"연애</w>":1864,"좋죠</w>":1865,"사랑이</w>":1866,"마음</w>":1867,"까지</w>":1868,"니까</w>":1869,"감정":1870,"했는데</w>":1871,"거라</w>":1872,"바랍니다</w>":1873,"힘든</w>":1874,"가고</w>":1875,"나요</w>":1876,"입니다</w>":1877,"해주":1878,"그럴</w>":1879,"리는</w>":1880,"그녀":1881,"나는</w>":1882,"상대":1883,"연락</w>":1884,"같은</w>":1885,"다는</w>":1886,"좋아</w>":1887,"지요</w>":1888,"가능":1889,"시간</w>":1890,"가요</w>":1891,"걱정":1892,"하나":1893,"화를</w>":1894,"이야기":1895,"말해보세요</w>":1896,"생각해요</w>":1897,"사랑은</w>":1898,"스러":1899,"이상":1900,"있었":1901,"하네</w>":1902,"사람은</w>":1903,"적인</w>":1904,"좋겠어요</w>":1905,"충분":1906,"하기</w>":1907,"로운</w>":1908,"걸까</w>":1909,"는지</w>":1910,"무슨</w>":1911,"어떨":1912,"이렇게</w>":1913,"있으면</w>":1914,"타는</w>":1915,"그래":1916,"기도</w>":1917,"말고</w>":1918,"신경":1919,"표현":1920,"그냥</w>":1921,"많은</w>":1922,"아닌":1923,"아직</w>":1924,"인지</w>":1925,"헤어졌":1926,"알아":1927,"사랑하는</w>":1928,"공부":1929,"다가":1930,"만들":1931,"몰라요</w>":1932,"돌아":1933,"물어":1934,"상처":1935,"선물":1936,"어떤</w>":1937,"왔어</w>":1938,"겠지만</w>":1939,"생겼":1940,"있는데</w>":1941,"하나</w>":1942,"자신을</w>":1943,"방법</w>":1944,"스트":1945,"했던</w>":1946,"사람을</w>":1947,"기억":1948,"보내":1949,"보면</w>":1950,"이해":1951,"텐데</w>":1952,"힘드네</w>":1953,"혼자":1954,"궁금":1955,"나만</w>":1956,"누구":1957,"새로운</w>":1958,"아프":1959,"애가</w>":1960,"어떨까요</w>":1961,"다가</w>":1962,"리고</w>":1963,"안되":1964,"하루":1965,"생각해보세요</w>":1966,"스트레":1967,"결정":1968,"라도</w>":1969,"부터</w>":1970,"해볼까</w>":1971,"노력":1972,"서로":1973,"지나":1974,"때문":1975,"인가</w>":1976,"생각이</w>":1977,"관심":1978,"리가</w>":1979,"선택":1980,"어서</w>":1981,"짝사랑</w>":1982,"아니에요</w>":1983,"가보세요</w>":1984,"기분":1985,"여행":1986,"오세요</w>":1987,"자기</w>":1988,"거나</w>":1989,"그러":1990,"부담":1991,"선물</w>":1992,"아직":1993,"이는</w>":1994,"좋겠네요</w>":1995,"지금</w>":1996,"하네요</w>":1997,"해지":1998,"여자친구":1999,"안돼</w>":2000,"않았":2001,"어떡":2002,"이유":2003,"친이</w>":2004,"생각을</w>":2005,"았는데</w>":2006,"조심":2007,"사랑을</w>":2008,"헤어진</w>":2009,"연락이</w>":2010,"군요</w>":2011,"그게</w>":2012,"도움":2013,"보고":2014,"언제":2015,"었어</w>":2016,"으세요</w>":2017,"이젠</w>":2018,"항상</w>":2019,"신경쓰":2020,"가세요</w>":2021,"같은데</w>":2022,"그렇게</w>":2023,"나한테</w>":2024,"따라</w>":2025,"어려":2026,"없이</w>":2027,"이나</w>":2028,"인연":2029,"저는</w>":2030,"처럼</w>":2031,"이별을</w>":2032,"방법":2033,"싶은데</w>":2034,"인가봐요</w>":2035,"적으로</w>":2036,"좋겠다</w>":2037,"모르겠어</w>":2038,"짝남이</w>":2039,"기를</w>":2040,"말을</w>":2041,"미련":2042,"바라요</w>":2043,"마음에</w>":2044,"받아들":2045,"는거</w>":2046,"때가</w>":2047,"서로</w>":2048,"나봅니다</w>":2049,"려보세요</w>":2050,"리세요</w>":2051,"만날</w>":2052,"않는</w>":2053,"있죠</w>":2054,"축하":2055,"하다</w>":2056,"힘들어</w>":2057,"남자</w>":2058,"만났":2059,"싫어</w>":2060,"싶은</w>":2061,"어디":2062,"졌어</w>":2063,"해봐요</w>":2064,"남자친구":2065,"찾아보세요</w>":2066,"답답":2067,"많아</w>":2068,"소개":2069,"쉽지</w>":2070,"스럽":2071,"운동":2072,"했나봐요</w>":2073,"확실":2074,"이별은</w>":2075,"이라도</w>":2076,"나봐</w>":2077,"만에</w>":2078,"있을":2079,"직접</w>":2080,"화가</w>":2081,"기대":2082,"달라":2083,"되었":2084,"괜찮아요</w>":2085,"내세요</w>":2086,"사이":2087,"상황":2088,"오래</w>":2089,"이어":2090,"이네</w>":2091,"있게</w>":2092,"잘못":2093,"좋겠어</w>":2094,"중에</w>":2095,"하면서</w>":2096,"충분히</w>":2097,"감이</w>":2098,"그렇":2099,"달라고</w>":2100,"대화를</w>":2101,"사는</w>":2102,"수록</w>":2103,"않을</w>":2104,"좋을까</w>":2105,"짝남</w>":2106,"도움이</w>":2107,"마지":2108,"물어보세요</w>":2109,"심히</w>":2110,"열심히</w>":2111,"인생":2112,"있나봐요</w>":2113,"편이</w>":2114,"데이트</w>":2115,"때문에</w>":2116,"대한</w>":2117,"썸남":2118,"았어</w>":2119,"언젠":2120,"힘들</w>":2121,"아직도</w>":2122,"거야</w>":2123,"건지</w>":2124,"나서</w>":2125,"말아요</w>":2126,"얼른</w>":2127,"위로":2128,"주는</w>":2129,"집에</w>":2130,"추억":2131,"함께</w>":2132,"확인":2133,"사랑의</w>":2134,"마음의</w>":2135,"연락을</w>":2136,"가지":2137,"건가</w>":2138,"결국</w>":2139,"마시":2140,"말씀":2141,"받고</w>":2142,"생각</w>":2143,"아서</w>":2144,"이제":2145,"일어":2146,"일까</w>":2147,"재미":2148,"하고":2149,"한가봐요</w>":2150,"현실":2151,"연락해보세요</w>":2152,"같애</w>":2153,"들어</w>":2154,"부모":2155,"습관":2156,"여행</w>":2157,"워요</w>":2158,"으니까요</w>":2159,"잊어":2160,"한지</w>":2161,"시간을</w>":2162,"괜찮아":2163,"짝녀가</w>":2164,"상대방":2165,"그리":2166,"내일</w>":2167,"다르":2168,"신이</w>":2169,"여친</w>":2170,"제일</w>":2171,"조금</w>":2172,"지가</w>":2173,"당신의</w>":2174,"오늘도</w>":2175,"조금만</w>":2176,"조심하세요</w>":2177,"가져":2178,"결혼</w>":2179,"그런":2180,"동안</w>":2181,"릴게요</w>":2182,"매일</w>":2183,"못하":2184,"않은</w>":2185,"요즘</w>":2186,"핸드":2187,"데이트":2188,"조금씩</w>":2189,"가장</w>":2190,"감을</w>":2191,"관계":2192,"나가":2193,"남친</w>":2194,"다음":2195,"되는</w>":2196,"살고</w>":2197,"세상":2198,"어때</w>":2199,"진심":2200,"화장":2201,"남자가</w>":2202,"중요한</w>":2203,"건강":2204,"귀찮":2205,"더니</w>":2206,"떨어":2207,"많았":2208,"성공":2209,"없네</w>":2210,"자연":2211,"전화":2212,"지내":2213,"카톡":2214,"사람이랑</w>":2215,"여자친구</w>":2216,"기다리":2217,"그래도</w>":2218,"갑자기</w>":2219,"거죠</w>":2220,"기는</w>":2221,"기분</w>":2222,"머리</w>":2223,"스타":2224,"일을</w>":2225,"잊혀":2226,"좋을":2227,"지지</w>":2228,"하시":2229,"하지":2230,"하겠어요</w>":2231,"회사":2232,"자신의</w>":2233,"중요해요</w>":2234,"개월":2235,"드릴게요</w>":2236,"먹어":2237,"싶어요</w>":2238,"알려":2239,"알았는데</w>":2240,"여자</w>":2241,"일은</w>":2242,"잘할</w>":2243,"처음":2244,"카톡</w>":2245,"한달":2246,"여자가</w>":2247,"나도</w>":2248,"마다</w>":2249,"말이</w>":2250,"복잡":2251,"살아":2252,"스스":2253,"연습":2254,"이면</w>":2255,"재밌":2256,"챙겨":2257,"하루</w>":2258,"힘든":2259,"사람들":2260,"해야지</w>":2261,"헤어지고</w>":2262,"스트레스</w>":2263,"서도</w>":2264,"했으면</w>":2265,"후폭":2266,"모르는</w>":2267,"짝남한테</w>":2268,"이야기</w>":2269,"가서</w>":2270,"됐어</w>":2271,"되길</w>":2272,"모습":2273,"뭘까</w>":2274,"보여":2275,"엄청</w>":2276,"예의":2277,"저랑</w>":2278,"전히</w>":2279,"해줘</w>":2280,"생각해</w>":2281,"정리가</w>":2282,"하는지</w>":2283,"나쁜</w>":2284,"느낌":2285,"도와":2286,"되나</w>":2287,"만남":2288,"무서":2289,"문제":2290,"의미":2291,"이가</w>":2292,"인정":2293,"전에</w>":2294,"피곤":2295,"사랑한":2296,"생각보다</w>":2297,"친구들":2298,"모르겠어요</w>":2299,"지금도</w>":2300,"노래":2301,"라면</w>":2302,"려요</w>":2303,"무시":2304,"뿐이에요</w>":2305,"쁘게</w>":2306,"싫어":2307,"어제</w>":2308,"이든</w>":2309,"자주</w>":2310,"짜증":2311,"남자친구</w>":2312,"오늘은</w>":2313,"스러운</w>":2314,"어떡해</w>":2315,"기로</w>":2316,"끝났":2317,"는건</w>":2318,"되지</w>":2319,"떠나":2320,"뭐가</w>":2321,"붙잡":2322,"솔직":2323,"쉬운</w>":2324,"실수":2325,"아파</w>":2326,"있나</w>":2327,"있다면</w>":2328,"준비</w>":2329,"천천":2330,"하셨":2331,"사람도</w>":2332,"사람한테</w>":2333,"친구랑</w>":2334,"기분이</w>":2335,"천천히</w>":2336,"가면</w>":2337,"그럴":2338,"마주":2339,"맛있게</w>":2340,"벌써</w>":2341,"순간":2342,"아침":2343,"아도</w>":2344,"에도</w>":2345,"우리</w>":2346,"이고</w>":2347,"잘하고</w>":2348,"점점</w>":2349,"지켜":2350,"짝사랑":2351,"하겠네요</w>":2352,"함께":2353,"했어요</w>":2354,"확신이</w>":2355,"겠지요</w>":2356,"공부</w>":2357,"두려":2358,"따뜻":2359,"때는</w>":2360,"빨리</w>":2361,"사세요</w>":2362,"아닐":2363,"아픔":2364,"이지</w>":2365,"하다":2366,"한데</w>":2367,"생각나":2368,"힘들었":2369,"만나고</w>":2370,"자신이</w>":2371,"당신이</w>":2372,"당신을</w>":2373,"해주는</w>":2374,"인연이</w>":2375,"거리":2376,"다녀":2377,"배우":2378,"버리세요</w>":2379,"심해</w>":2380,"아닌</w>":2381,"엄마":2382,"없을</w>":2383,"여친":2384,"운명":2385,"이런</w>":2386,"잘하는</w>":2387,"정신":2388,"한달</w>":2389,"힘내세요</w>":2390,"사람들이</w>":2391,"하나씩</w>":2392,"이유가</w>":2393,"핸드폰</w>":2394,"가슴":2395,"고생</w>":2396,"그만</w>":2397,"까봐</w>":2398,"나와</w>":2399,"눈을</w>":2400,"능력":2401,"머리":2402,"먹었":2403,"믿어요</w>":2404,"않을":2405,"예뻐":2406,"오래":2407,"오는</w>":2408,"익숙":2409,"인가":2410,"일찍</w>":2411,"좋은":2412,"지났":2413,"하길</w>":2414,"사랑에</w>":2415,"아닌데</w>":2416,"서로에게</w>":2417,"언젠간</w>":2418,"많았어요</w>":2419,"가족":2420,"극복":2421,"놓아":2422,"드는</w>":2423,"래도</w>":2424,"모두</w>":2425,"바라":2426,"생활":2427,"안해</w>":2428,"않죠</w>":2429,"어느":2430,"오네</w>":2431,"일째</w>":2432,"잠시</w>":2433,"즐거":2434,"집착":2435,"해보는</w>":2436,"했습니다</w>":2437,"좋아하":2438,"힘들다</w>":2439,"이라면</w>":2440,"사귀고</w>":2441,"부담스러":2442,"못하겠어</w>":2443,"1년":2444,"가야":2445,"격이</w>":2446,"곳으로</w>":2447,"관심</w>":2448,"그만":2449,"까지":2450,"날이</w>":2451,"더라":2452,"데도</w>":2453,"되겠네요</w>":2454,"맞는</w>":2455,"무엇":2456,"버렸":2457,"분이</w>":2458,"시원":2459,"싶네요</w>":2460,"않아</w>":2461,"여유":2462,"위해</w>":2463,"이겨":2464,"일도</w>":2465,"자존":2466,"주무":2467,"해보":2468,"해질</w>":2469,"행동":2470,"후련":2471,"힘이</w>":2472,"좋아할</w>":2473,"만나는</w>":2474,"필요한</w>":2475,"있었나봐요</w>":2476,"신경쓰지</w>":2477,"마지막</w>":2478,"가기</w>":2479,"거짓":2480,"고민</w>":2481,"나면</w>":2482,"노래</w>":2483,"놓고</w>":2484,"눈이</w>":2485,"다행":2486,"데요</w>":2487,"때까지</w>":2488,"만의</w>":2489,"뭐야</w>":2490,"받을</w>":2491,"살펴":2492,"시켜":2493,"아파":2494,"아는</w>":2495,"애한테</w>":2496,"없죠</w>":2497,"여친이</w>":2498,"외로":2499,"자체":2500,"장이</w>":2501,"주지</w>":2502,"줄까</w>":2503,"차단":2504,"추천":2505,"한번</w>":2506,"헷갈":2507,"연락하고</w>":2508,"이별이</w>":2509,"이별한지</w>":2510,"괜찮은</w>":2511,"아무것도</w>":2512,"아무래도</w>":2513,"가끔</w>":2514,"감기</w>":2515,"것이</w>":2516,"내려":2517,"너무":2518,"눈물":2519,"느껴":2520,"들을</w>":2521,"리지</w>":2522,"마요</w>":2523,"모든</w>":2524,"바람":2525,"별로":2526,"보지</w>":2527,"봐도</w>":2528,"부족":2529,"사를</w>":2530,"소중":2531,"슬픈</w>":2532,"아이":2533,"아픈</w>":2534,"여보세요</w>":2535,"영화":2536,"응원":2537,"이라고</w>":2538,"재회":2539,"정이</w>":2540,"짝녀</w>":2541,"하겠죠</w>":2542,"지금은</w>":2543,"부모님":2544,"먹어야지</w>":2545,"후폭풍":2546,"주무세요</w>":2547,"갈까</w>":2548,"개월</w>":2549,"금방</w>":2550,"나아":2551,"나중에</w>":2552,"늦지</w>":2553,"데려":2554,"도전":2555,"르고</w>":2556,"많아요</w>":2557,"받는</w>":2558,"부러":2559,"싸우":2560,"않아도</w>":2561,"어야</w>":2562,"얼마":2563,"우울":2564,"있습니다</w>":2565,"져요</w>":2566,"주고</w>":2567,"타고</w>":2568,"포기":2569,"좋아하면</w>":2570,"친구를</w>":2571,"헤어짐":2572,"괜찮을까</w>":2573,"필요해요</w>":2574,"사귀는</w>":2575,"관심이</w>":2576,"가져보세요</w>":2577,"예의가</w>":2578,"겠습니다</w>":2579,"꿈에</w>":2580,"남편이</w>":2581,"다니":2582,"되네</w>":2583,"미리</w>":2584,"사진</w>":2585,"썸남</w>":2586,"야겠다</w>":2587,"어렵":2588,"없네요</w>":2589,"었는데</w>":2590,"원하는</w>":2591,"이러":2592,"정도":2593,"중인데</w>":2594,"하려":2595,"하니</w>":2596,"환승":2597,"흘렀":2598,"좋아하게</w>":2599,"사랑했던</w>":2600,"힘들게</w>":2601,"이별후</w>":2602,"당신은</w>":2603,"기다려":2604,"감정을</w>":2605,"그녀를</w>":2606,"헤어졌습니다</w>":2607,"만났어</w>":2608,"스럽게</w>":2609,"확인해보세요</w>":2610,"살펴보세요</w>":2611,"간다</w>":2612,"남친이</w>":2613,"내는</w>":2614,"다를</w>":2615,"대화":2616,"대요</w>":2617,"드려요</w>":2618,"로맨":2619,"마련":2620,"맨날</w>":2621,"밖에</w>":2622,"받았어</w>":2623,"변화가</w>":2624,"보통</w>":2625,"설레":2626,"쉬고</w>":2627,"아름":2628,"않는":2629,"언제</w>":2630,"예쁘게</w>":2631,"이요</w>":2632,"잠이</w>":2633,"태어":2634,"하려고</w>":2635,"한게</w>":2636,"했다</w>":2637,"사랑해주세요</w>":2638,"사람이":2639,"친구한테</w>":2640,"남자애가</w>":2641,"힘들죠</w>":2642,"이별의</w>":2643,"만나지</w>":2644,"아니라</w>":2645,"중요하지</w>":2646,"고민이야</w>":2647,"짝녀한테</w>":2648,"누구나</w>":2649,"언제나</w>":2650,"하지마세요</w>":2651,"ㅠㅠ</w>":2652,"같습니다</w>":2653,"걸로</w>":2654,"기회":2655,"기까지":2656,"꾸준":2657,"놀러":2658,"는걸까</w>":2659,"다니</w>":2660,"됐는데</w>":2661,"되면</w>":2662,"들은</w>":2663,"마스":2664,"맛있는</w>":2665,"먹으면</w>":2666,"미치":2667,"바쁘":2668,"바로</w>":2669,"분위":2670,"소리":2671,"않고</w>":2672,"알게</w>":2673,"없다면</w>":2674,"에게":2675,"연인":2676,"오랜":2677,"완전</w>":2678,"으니</w>":2679,"있는지</w>":2680,"자리":2681,"자는</w>":2682,"작은</w>":2683,"적당":2684,"주면</w>":2685,"즐기":2686,"최고":2687,"충전":2688,"커피":2689,"허전":2690,"힘들어요</w>":2691,"짝남이랑</w>":2692,"이상형":2693,"그래요</w>":2694,"확실한</w>":2695,"가지고</w>":2696,"즐거운</w>":2697,"가지</w>":2698,"가네</w>":2699,"같네요</w>":2700,"그리고</w>":2701,"날씨":2702,"남친":2703,"느낌</w>":2704,"당연":2705,"돈이</w>":2706,"되고</w>":2707,"되는데</w>":2708,"드디":2709,"드라":2710,"때도</w>":2711,"멋진</w>":2712,"받아</w>":2713,"방학":2714,"보는게</w>":2715,"상관</w>":2716,"생길</w>":2717,"싫다</w>":2718,"아무</w>":2719,"애랑</w>":2720,"어울":2721,"어쩌":2722,"왔는데</w>":2723,"을텐데</w>":2724,"이라</w>":2725,"이길</w>":2726,"자책":2727,"잖아요</w>":2728,"존중":2729,"좋겠죠</w>":2730,"좋은데</w>":2731,"줬으면</w>":2732,"진정":2733,"커피</w>":2734,"타이":2735,"여자애가</w>":2736,"힘들겠지만</w>":2737,"이라는</w>":2738,"아닌지</w>":2739,"스트레스":2740,"귀찮아</w>":2741,"스스로</w>":2742,"헷갈리":2743,"10":2744,"가를</w>":2745,"가능</w>":2746,"것을</w>":2747,"고요</w>":2748,"관리":2749,"그녀</w>":2750,"나오":2751,"내서</w>":2752,"당당":2753,"마셔":2754,"맞춰":2755,"몸이</w>":2756,"뭐라고</w>":2757,"뭔가</w>":2758,"뭔지</w>":2759,"비밀":2760,"소식":2761,"수가</w>":2762,"시험</w>":2763,"신가봐요</w>":2764,"않길</w>":2765,"앞에</w>":2766,"야죠</w>":2767,"얼굴</w>":2768,"예민":2769,"이란</w>":2770,"이예요</w>":2771,"있네요</w>":2772,"잠깐</w>":2773,"주말":2774,"지쳤":2775,"지고</w>":2776,"차분":2777,"추천</w>":2778,"한다</w>":2779,"해결":2780,"헤아":2781,"좋아해</w>":2782,"좋아하는데</w>":2783,"사랑하고</w>":2784,"사람에게</w>":2785,"헤어짐</w>":2786,"연락해도</w>":2787,"시간은</w>":2788,"마지막":2789,"이제는</w>":2790,"알려줘</w>":2791,"아닐까요</w>":2792,"가슴이</w>":2793,"어느덧</w>":2794,"더라고요</w>":2795,"로맨틱":2796,"드디어</w>":2797,"1년</w>":2798,"가봅니다</w>":2799,"가야지</w>":2800,"거겠죠</w>":2801,"기만</w>":2802,"끝내":2803,"답니다</w>":2804,"두근":2805,"두고</w>":2806,"드시":2807,"말도</w>":2808,"못하는</w>":2809,"문제가</w>":2810,"받지</w>":2811,"서운":2812,"스킨":2813,"슬프":2814,"신경</w>":2815,"알바":2816,"알고</w>":2817,"영화</w>":2818,"오면</w>":2819,"용기":2820,"으면서</w>":2821,"을거예요</w>":2822,"을지도</w>":2823,"이성":2824,"잠을</w>":2825,"절대</w>":2826,"정도</w>":2827,"키우":2828,"학교</w>":2829,"해졌":2830,"해줘":2831,"힘내":2832,"좋아하는게</w>":2833,"사랑하면</w>":2834,"사람에</w>":2835,"생각하고</w>":2836,"마음도</w>":2837,"마음은</w>":2838,"힘들어":2839,"필요해</w>":2840,"고민이</w>":2841,"물어보는</w>":2842,"그러면</w>":2843,"어려워</w>":2844,"미련이</w>":2845,"받아들이는</w>":2846,"축하해요</w>":2847,"소개팅</w>":2848,"자연스러운</w>":2849,"다행이에요</w>":2850,"않는다면</w>":2851,"갖고</w>":2852,"같네</w>":2853,"겠네</w>":2854,"곳이</w>":2855,"귀여":2856,"그분":2857,"끝이</w>":2858,"나이":2859,"니가</w>":2860,"두세요</w>":2861,"라는</w>":2862,"만들어":2863,"많은":2864,"말하세요</w>":2865,"뭐든</w>":2866,"바보":2867,"버려":2868,"보러</w>":2869,"불편":2870,"비가</w>":2871,"상이에요</w>":2872,"선생":2873,"시길</w>":2874,"안하고</w>":2875,"어머":2876,"용기를</w>":2877,"운동</w>":2878,"월급":2879,"이상</w>":2880,"일주":2881,"있지</w>":2882,"있나요</w>":2883,"저를</w>":2884,"정리</w>":2885,"좋았":2886,"지우":2887,"최선":2888,"치가</w>":2889,"치고</w>":2890,"프로":2891,"흔들":2892,"사람과</w>":2893,"사람이네요</w>":2894,"사람마다</w>":2895,"힘들겠어요</w>":2896,"기다리고</w>":2897,"하는거</w>":2898,"준비가</w>":2899,"충분한</w>":2900,"궁금해</w>":2901,"관심을</w>":2902,"않았으면</w>":2903,"다음에는</w>":2904,"진심으로</w>":2905,"잊혀지":2906,"꾸준히</w>":2907,"자책하지</w>":2908,"2년":2909,"2주":2910,"가도</w>":2911,"가자고</w>":2912,"것보다</w>":2913,"게임</w>":2914,"경우":2915,"고마":2916,"그건</w>":2917,"길이</w>":2918,"끝나":2919,"나랑</w>":2920,"누가</w>":2921,"덤덤":2922,"되어":2923,"때요</w>":2924,"만난</w>":2925,"매력":2926,"먹을</w>":2927,"몰랐":2928,"못하고</w>":2929,"번호</w>":2930,"보냈":2931,"부탁":2932,"사과":2933,"사진":2934,"삭제":2935,"생기":2936,"성이</w>":2937,"속이</w>":2938,"시작</w>":2939,"식을</w>":2940,"싶네</w>":2941,"아보세요</w>":2942,"았나봐요</w>":2943,"어색":2944,"얼굴":2945,"없어":2946,"위험":2947,"을거라</w>":2948,"이기":2949,"있고</w>":2950,"있겠어요</w>":2951,"있잖아요</w>":2952,"잊지</w>":2953,"자유":2954,"장에서</w>":2955,"재회</w>":2956,"적극":2957,"전화</w>":2958,"죽을</w>":2959,"질투":2960,"처음</w>":2961,"청소":2962,"취직":2963,"칭찬":2964,"하나봐요</w>":2965,"한번":2966,"한테":2967,"할지</w>":2968,"함이</w>":2969,"회사</w>":2970,"좋아하는지</w>":2971,"사람의</w>":2972,"생각나</w>":2973,"생각할</w>":2974,"만나보세요</w>":2975,"행복해</w>":2976,"후회하지</w>":2977,"방법이</w>":2978,"소개팅":2979,"썸남이</w>":2980,"부모님</w>":2981,"않을까요</w>":2982,"인가봐</w>":2983,"후폭풍이</w>":2984,"적당히</w>":2985,"타이밍":2986,"선생님":2987,"가슴</w>":2988,"가는데</w>":2989,"감사":2990,"거니</w>":2991,"거기까지":2992,"게임":2993,"구나</w>":2994,"기간":2995,"기본":2996,"꿈을</w>":2997,"끝을</w>":2998,"나눠":2999,"나타":3000,"나을</w>":3001,"날씨</w>":3002,"는데도</w>":3003,"당황":3004,"더라</w>":3005,"되어</w>":3006,"따로</w>":3007,"르는</w>":3008,"리스":3009,"머리가</w>":3010,"면서도</w>":3011,"못한</w>":3012,"못해</w>":3013,"무너":3014,"무뎌":3015,"믿음":3016,"바람</w>":3017,"버텨":3018,"보니</w>":3019,"생일":3020,"성격이</w>":3021,"소리</w>":3022,"쇼핑":3023,"순간</w>":3024,"쉽게</w>":3025,"싶지</w>":3026,"쓰는</w>":3027,"알아</w>":3028,"알바</w>":3029,"어디</w>":3030,"얼마</w>":3031,"연예":3032,"완전히</w>":3033,"으시":3034,"이다</w>":3035,"일이에요</w>":3036,"일이네요</w>":3037,"있어도</w>":3038,"잊고</w>":3039,"잊을</w>":3040,"저에게</w>":3041,"제대로</w>":3042,"좋지</w>":3043,"주변":3044,"집중":3045,"카페":3046,"퇴근":3047,"하다고</w>":3048,"하자고</w>":3049,"해줄</w>":3050,"해지는</w>":3051,"헤어져":3052,"만나자고</w>":3053,"자신에게</w>":3054,"자신감을</w>":3055,"해야할까</w>":3056,"그녀가</w>":3057,"하나도</w>":3058,"헤어졌어</w>":3059,"결정이었":3060,"서로를</w>":3061,"보고싶어</w>":3062,"어려운</w>":3063,"상황을</w>":3064,"그런가봐요</w>":3065,"화장실</w>":3066,"스스로":3067,"무서워</w>":3068,"아름다":3069,"고싶어</w>":3070,"귀엽":3071,"그랬":3072,"기억</w>":3073,"끝은</w>":3074,"놀아요</w>":3075,"눈에</w>":3076,"다른":3077,"다는데</w>":3078,"다보면</w>":3079,"대해</w>":3080,"동거":3081,"동생":3082,"동안":3083,"됩니다</w>":3084,"떨려</w>":3085,"만난":3086,"맘고생</w>":3087,"미안":3088,"배려":3089,"버리":3090,"벗어":3091,"비싸</w>":3092,"살짝</w>":3093,"상관":3094,"상을</w>":3095,"시다</w>":3096,"쓰레":3097,"안녕":3098,"안타":3099,"안녕</w>":3100,"앞에서</w>":3101,"없다</w>":3102,"었나봐요</w>":3103,"예쁜</w>":3104,"우리":3105,"우산</w>":3106,"움을</w>":3107,"워서</w>":3108,"원래</w>":3109,"위한</w>":3110,"이겠죠</w>":3111,"인가요</w>":3112,"일에</w>":3113,"있겠죠</w>":3114,"잊는</w>":3115,"장을</w>":3116,"적응":3117,"질까</w>":3118,"커플":3119,"크리스":3120,"하니까</w>":3121,"하거나</w>":3122,"학교":3123,"한거</w>":3124,"할까요</w>":3125,"할게요</w>":3126,"할텐데</w>":3127,"좋아한":3128,"사랑할</w>":3129,"생각하세요</w>":3130,"연락해</w>":3131,"힘들지</w>":3132,"만나세요</w>":3133,"행복한</w>":3134,"후회할</w>":3135,"아무리</w>":3136,"시작해보세요</w>":3137,"해주고</w>":3138,"만들어</w>":3139,"돌아오":3140,"혼자가</w>":3141,"안되는</w>":3142,"축하드려요</w>":3143,"말씀해주세요</w>":3144,"연습을</w>":3145,"놓아주세요</w>":3146,"눈물이</w>":3147,"SN":3148,"가치":3149,"거지</w>":3150,"거리</w>":3151,"견디":3152,"경험":3153,"괜히</w>":3154,"괴롭":3155,"그대":3156,"꿨어</w>":3157,"나네</w>":3158,"냐고</w>":3159,"느끼":3160,"다이어":3161,"당신</w>":3162,"말은</w>":3163,"말하는</w>":3164,"면요</w>":3165,"모든":3166,"무섭":3167,"미워":3168,"바뀌":3169,"바쁜":3170,"발전":3171,"배고":3172,"배워":3173,"변화":3174,"사가</w>":3175,"상담":3176,"속상":3177,"안경</w>":3178,"애매":3179,"어느</w>":3180,"어쩔</w>":3181,"없애":3182,"없는데</w>":3183,"었네</w>":3184,"올까</w>":3185,"와서</w>":3186,"왔네</w>":3187,"왔다</w>":3188,"우연":3189,"의지":3190,"이번":3191,"이용":3192,"이게</w>":3193,"인사":3194,"잡고</w>":3195,"장난":3196,"재미</w>":3197,"전환":3198,"종교":3199,"좋다</w>":3200,"줘도</w>":3201,"줬어</w>":3202,"지워":3203,"직장</w>":3204,"집안":3205,"착각":3206,"채워":3207,"취미":3208,"치는</w>":3209,"타는데</w>":3210,"편지</w>":3211,"하지만</w>":3212,"한잔</w>":3213,"현상이에요</w>":3214,"호감이</w>":3215,"사랑한</w>":3216,"사랑하는데</w>":3217,"생각만</w>":3218,"연락하면</w>":3219,"남자를</w>":3220,"만나서</w>":3221,"괜찮을</w>":3222,"괜찮아</w>":3223,"모르겠네요</w>":3224,"기다릴</w>":3225,"하는건</w>":3226,"감정이</w>":3227,"이야기해보세요</w>":3228,"다가도</w>":3229,"말씀해보세요</w>":3230,"괜찮아졌":3231,"자연스럽게</w>":3232,"사랑한다고</w>":3233,"능력이</w>":3234,"부담스러워":3235,"여유를</w>":3236,"가까":3237,"가벼":3238,"간절":3239,"감정</w>":3240,"갔어</w>":3241,"같지</w>":3242,"고백</w>":3243,"군대</w>":3244,"그래</w>":3245,"꿈이</w>":3246,"나온":3247,"나게</w>":3248,"나이가</w>":3249,"내일은</w>":3250,"네여</w>":3251,"누군":3252,"느라</w>":3253,"도서":3254,"돈을</w>":3255,"될까요</w>":3256,"려면</w>":3257,"리면</w>":3258,"많죠</w>":3259,"먹는</w>":3260,"뭐하지</w>":3261,"미래":3262,"바꿔":3263,"반복":3264,"벽에</w>":3265,"본인":3266,"사라":3267,"살까</w>":3268,"소한</w>":3269,"속에</w>":3270,"쉬는</w>":3271,"쉬세요</w>":3272,"시키":3273,"싶어":3274,"썸이</w>":3275,"아침</w>":3276,"안나</w>":3277,"안해도</w>":3278,"않네</w>":3279,"여기":3280,"였어</w>":3281,"영원":3282,"오해":3283,"의미</w>":3284,"이런":3285,"이니까요</w>":3286,"일지도</w>":3287,"있는게</w>":3288,"잠수":3289,"졸려</w>":3290,"주변</w>":3291,"짝사랑하는</w>":3292,"챙겨</w>":3293,"출근":3294,"피해":3295,"하늘":3296,"하러</w>":3297,"하다가</w>":3298,"할수록</w>":3299,"해져</w>":3300,"했네</w>":3301,"호감을</w>":3302,"좋아할까</w>":3303,"사람들</w>":3304,"사람이에요</w>":3305,"생각하는</w>":3306,"생각나는</w>":3307,"만나면</w>":3308,"기다리는</w>":3309,"이었을</w>":3310,"들어드릴게요</w>":3311,"이상한</w>":3312,"이상해</w>":3313,"생겼어</w>":3314,"궁금하네요</w>":3315,"부담스럽":3316,"해지면</w>":3317,"않았어요</w>":3318,"확실히</w>":3319,"썸남한테</w>":3320,"추억이</w>":3321,"습관이에요</w>":3322,"지내고</w>":3323,"지켜보세요</w>":3324,"하다보면</w>":3325,"소중한</w>":3326,"오랜만에</w>":3327,"날씨가</w>":3328,"어쩌지</w>":3329,"갑작":3330,"것은</w>":3331,"과정":3332,"관리</w>":3333,"기념":3334,"기울":3335,"깔끔":3336,"나의</w>":3337,"내고</w>":3338,"달이</w>":3339,"대단":3340,"도요</w>":3341,"됐으면</w>":3342,"되죠</w>":3343,"되기도</w>":3344,"된다고</w>":3345,"둘이</w>":3346,"드네</w>":3347,"듭니다</w>":3348,"따라":3349,"때네요</w>":3350,"만이</w>":3351,"만남</w>":3352,"먹을까</w>":3353,"무리":3354,"문자</w>":3355,"미세":3356,"바뀔</w>":3357,"배가</w>":3358,"병원":3359,"봤어</w>":3360,"비교":3361,"비슷":3362,"사고</w>":3363,"안와</w>":3364,"않으면</w>":3365,"알았":3366,"야할</w>":3367,"약속</w>":3368,"얘기":3369,"어때요</w>":3370,"없나</w>":3371,"옆에</w>":3372,"올려":3373,"완벽":3374,"왔으면</w>":3375,"왔습니다</w>":3376,"으려고</w>":3377,"이혼":3378,"이거</w>":3379,"이세요</w>":3380,"인듯</w>":3381,"있으":3382,"있으니까요</w>":3383,"재를</w>":3384,"저도요</w>":3385,"적이</w>":3386,"적이든</w>":3387,"전해보세요</w>":3388,"전남친</w>":3389,"접적이든</w>":3390,"정신</w>":3391,"조급":3392,"종일</w>":3393,"지네</w>":3394,"참고</w>":3395,"편하게</w>":3396,"하기도</w>":3397,"한가</w>":3398,"할때</w>":3399,"해줬으면</w>":3400,"좋아하고</w>":3401,"연락하는</w>":3402,"필요하죠</w>":3403,"해야죠</w>":3404,"연애는</w>":3405,"고민하고</w>":3406,"아무도</w>":3407,"시작이</w>":3408,"그녀의</w>":3409,"걱정돼</w>":3410,"이야기를</w>":3411,"이야기네요</w>":3412,"그래서</w>":3413,"알아보세요</w>":3414,"상처를</w>":3415,"이해해주세요</w>":3416,"노력해보세요</w>":3417,"지나갈</w>":3418,"여자친구의</w>":3419,"여자친구와</w>":3420,"어떡하지</w>":3421,"남자친구의</w>":3422,"상황이</w>":3423,"잊어버리세요</w>":3424,"건강에</w>":3425,"보여요</w>":3426,"붙잡고</w>":3427,"엄마가</w>":3428,"예뻐요</w>":3429,"얼마나</w>":3430,"흘렀네요</w>":3431,"분위기</w>":3432,"헷갈리게</w>":3433,"지쳤나봐요</w>":3434,"미세먼":3435,"2년</w>":3436,"5년":3437,"가끔":3438,"갑니다</w>":3439,"거를</w>":3440,"견뎌":3441,"곳에서</w>":3442,"공허":3443,"권태":3444,"긍정":3445,"기운":3446,"깨달":3447,"나쁘":3448,"나쁜":3449,"나이</w>":3450,"남사":3451,"남았":3452,"남의</w>":3453,"내보세요</w>":3454,"늦게</w>":3455,"다는":3456,"답이</w>":3457,"됐네</w>":3458,"드리고</w>":3459,"듣고</w>":3460,"려도</w>":3461,"리기</w>":3462,"립니다</w>":3463,"만나</w>":3464,"만해도</w>":3465,"말할</w>":3466,"먹기</w>":3467,"멀어":3468,"못할</w>":3469,"무덤덤":3470,"문득</w>":3471,"변화를</w>":3472,"보아요</w>":3473,"봤는데</w>":3474,"부럽":3475,"사실":3476,"샀어</w>":3477,"쉬어":3478,"시켜</w>":3479,"시어머":3480,"신혼":3481,"실감이</w>":3482,"심호":3483,"싶은":3484,"썸타는</w>":3485,"썸인지</w>":3486,"아까":3487,"안들어</w>":3488,"않으니까요</w>":3489,"알면서도</w>":3490,"어장":3491,"없다고</w>":3492,"에서도</w>":3493,"여사":3494,"여러</w>":3495,"였나봐요</w>":3496,"용기가</w>":3497,"유지":3498,"으로":3499,"이루":3500,"이트":3501,"인형</w>":3502,"있네</w>":3503,"있지만</w>":3504,"잊는":3505,"자격":3506,"자기":3507,"자신</w>":3508,"장거리</w>":3509,"전여친</w>":3510,"점을</w>":3511,"정말":3512,"정확":3513,"졸업":3514,"지쳐":3515,"지를</w>":3516,"지면</w>":3517,"차별":3518,"첫사랑</w>":3519,"통보</w>":3520,"판단":3521,"프사</w>":3522,"필요</w>":3523,"하던</w>":3524,"후회</w>":3525,"희망":3526,"좋아해도</w>":3527,"사랑하지</w>":3528,"사람으로</w>":3529,"생각하":3530,"연락하지</w>":3531,"남자들은</w>":3532,"만나는게</w>":3533,"아니었":3534,"아니라고</w>":3535,"필요하":3536,"필요는</w>":3537,"당신도</w>":3538,"해야겠다</w>":3539,"기다려보세요</w>":3540,"연애를</w>":3541,"후회가</w>":3542,"짝녀랑</w>":3543,"만들어보세요</w>":3544,"상처가</w>":3545,"선물이</w>":3546,"생겼는데</w>":3547,"결정을</w>":3548,"서로의</w>":3549,"지나갔":3550,"여행을</w>":3551,"여자친구랑</w>":3552,"이유를</w>":3553,"받아들여":3554,"만났는데</w>":3555,"사이가</w>":3556,"인생은</w>":3557,"가지세요</w>":3558,"일어나":3559,"하고싶어</w>":3560,"괜찮아질</w>":3561,"상대방을</w>":3562,"사람들에게</w>":3563,"친구들과</w>":3564,"무시하세요</w>":3565,"하셨네요</w>":3566,"아침에</w>":3567,"생각나네</w>":3568,"외로워</w>":3569,"즐기세요</w>":3570,"당당하게</w>":3571,"안타깝":3572,"3개월":3573,"4년":3574,"가봐</w>":3575,"거절":3576,"거의</w>":3577,"거려</w>":3578,"거같아</w>":3579,"계획":3580,"곳에</w>":3581,"괴로":3582,"그동안</w>":3583,"나은</w>":3584,"나왔어</w>":3585,"나가세요</w>":3586,"남편":3587,"남을</w>":3588,"냐에</w>":3589,"놀고</w>":3590,"눈물</w>":3591,"다양":3592,"다들</w>":3593,"담배</w>":3594,"대학</w>":3595,"데는</w>":3596,"도가</w>":3597,"듯이</w>":3598,"디션</w>":3599,"때를</w>":3600,"때론</w>":3601,"렸어</w>":3602,"만족":3603,"만든</w>":3604,"만은</w>":3605,"많은데</w>":3606,"말해</w>":3607,"말이에요</w>":3608,"맘이</w>":3609,"멈추":3610,"면접</w>":3611,"미친":3612,"미련</w>":3613,"바꾸":3614,"발표</w>":3615,"보기</w>":3616,"보여</w>":3617,"부터":3618,"빠가</w>":3619,"사회":3620,"사귈</w>":3621,"살이</w>":3622,"상태":3623,"생긴":3624,"선이</w>":3625,"속에서</w>":3626,"술이</w>":3627,"실망":3628,"쐬고</w>":3629,"아닐</w>":3630,"아예</w>":3631,"안하는</w>":3632,"안돼요</w>":3633,"안됐는데</w>":3634,"않게</w>":3635,"앞으로</w>":3636,"어플":3637,"없으면</w>":3638,"었던</w>":3639,"었어요</w>":3640,"외국":3641,"우선":3642,"원을</w>":3643,"이름":3644,"이니</w>":3645,"이건</w>":3646,"이유</w>":3647,"이겠네요</w>":3648,"인상":3649,"인거</w>":3650,"인생</w>":3651,"일까요</w>":3652,"있는":3653,"있다</w>":3654,"있길</w>":3655,"있겠지</w>":3656,"있는거</w>":3657,"자세":3658,"전여친":3659,"정상":3660,"조절":3661,"조언</w>":3662,"좋겠지</w>":3663,"주말</w>":3664,"줄게요</w>":3665,"중간":3666,"중인</w>":3667,"중입니다</w>":3668,"집에서</w>":3669,"짝사랑이</w>":3670,"첫사랑":3671,"치지</w>":3672,"친한</w>":3673,"카페</w>":3674,"크게</w>":3675,"편한</w>":3676,"피할</w>":3677,"한다면</w>":3678,"한동안":3679,"할지도</w>":3680,"해달라고</w>":3681,"현금":3682,"혹시</w>":3683,"사랑했":3684,"사랑해</w>":3685,"사랑해서</w>":3686,"친구들이</w>":3687,"연락은</w>":3688,"여자를</w>":3689,"여자애한테</w>":3690,"힘들어서</w>":3691,"자신에</w>":3692,"아니면</w>":3693,"아니라면</w>":3694,"모르고</w>":3695,"필요할</w>":3696,"해야겠지</w>":3697,"해야할지</w>":3698,"기다려</w>":3699,"정리하는게</w>":3700,"행복할</w>":3701,"행복하게</w>":3702,"이었으면</w>":3703,"준비를</w>":3704,"준비해보세요</w>":3705,"아무렇":3706,"감정에</w>":3707,"그녀는</w>":3708,"상대를</w>":3709,"가능할</w>":3710,"가능성이</w>":3711,"충분해요</w>":3712,"선물을</w>":3713,"아프네</w>":3714,"선택을</w>":3715,"보고싶":3716,"언제쯤</w>":3717,"방법을</w>":3718,"방법이에요</w>":3719,"운동을</w>":3720,"있을거예요</w>":3721,"달라지는</w>":3722,"언젠가</w>":3723,"위로가</w>":3724,"위로해</w>":3725,"상대방이</w>":3726,"떨어졌어</w>":3727,"회사에서</w>":3728,"후폭풍</w>":3729,"모습이</w>":3730,"모습을</w>":3731,"무서운</w>":3732,"사랑한다면</w>":3733,"두려워</w>":3734,"좋아하던</w>":3735,"버렸어</w>":3736,"자존감이</w>":3737,"응원합니다</w>":3738,"부러워</w>":3739,"부러워요</w>":3740,"마스크</w>":3741,"소리를</w>":3742,"최고죠</w>":3743,"진정한</w>":3744,"용기내서</w>":3745,"사진을</w>":3746,"적극적으로</w>":3747,"만난지</w>":3748,"부담스럽지</w>":3749,"한동안은</w>":3750,"3년":3751,"5년</w>":3752,"sn":3753,"간의</w>":3754,"걸리":3755,"겨보세요</w>":3756,"고생":3757,"고쳐":3758,"고치":3759,"골라":3760,"글을</w>":3761,"깊은</w>":3762,"꿈에서</w>":3763,"끄러":3764,"끝까지</w>":3765,"나나</w>":3766,"나이는</w>":3767,"내요</w>":3768,"냉장":3769,"너에게</w>":3770,"놀이":3771,"단단":3772,"달달":3773,"답을</w>":3774,"당장</w>":3775,"당했어</w>":3776,"더라도</w>":3777,"들고</w>":3778,"떨리":3779,"똑같은</w>":3780,"력이</w>":3781,"막히":3782,"말투":3783,"말까</w>":3784,"맛이</w>":3785,"모두":3786,"뭐하고</w>":3787,"바빠":3788,"받았":3789,"받은</w>":3790,"번호":3791,"변덕":3792,"보이":3793,"보이고</w>":3794,"부분":3795,"불행":3796,"비싸":3797,"사용":3798,"사소한</w>":3799,"상처</w>":3800,"새로</w>":3801,"생활</w>":3802,"셨나봐요</w>":3803,"소문":3804,"소화":3805,"수는</w>":3806,"시기":3807,"식이</w>":3808,"신고":3809,"싫은</w>":3810,"썸녀":3811,"썸인데</w>":3812,"쓰고</w>":3813,"아픈":3814,"아는데</w>":3815,"알면</w>":3816,"애를</w>":3817,"어찌":3818,"없는":3819,"없지</w>":3820,"없나봐요</w>":3821,"없어서</w>":3822,"역시</w>":3823,"예쁘":3824,"온전히</w>":3825,"우세요</w>":3826,"운을</w>":3827,"울까</w>":3828,"움직":3829,"원망":3830,"웠어</w>":3831,"을까요</w>":3832,"의심":3833,"이기</w>":3834,"이래</w>":3835,"이팅</w>":3836,"인이</w>":3837,"인기가</w>":3838,"있겠네요</w>":3839,"있다고</w>":3840,"있다는</w>":3841,"있어서</w>":3842,"잊지":3843,"저한테</w>":3844,"적어보세요</w>":3845,"전부":3846,"점심":3847,"제발</w>":3848,"조언":3849,"조차</w>":3850,"좋겠지만</w>":3851,"진실":3852,"집이</w>":3853,"차이":3854,"책을</w>":3855,"청해보세요</w>":3856,"타인":3857,"파이팅</w>":3858,"피하세요</w>":3859,"하늘</w>":3860,"하겠습니다</w>":3861,"학원</w>":3862,"할거예요</w>":3863,"해하지</w>":3864,"했겠어요</w>":3865,"화장</w>":3866,"후가</w>":3867,"후에</w>":3868,"좋아해요</w>":3869,"사랑으로</w>":3870,"생각에</w>":3871,"생각은</w>":3872,"생각하지</w>":3873,"생각이에요</w>":3874,"친구로</w>":3875,"마음으로</w>":3876,"여자애</w>":3877,"남자는</w>":3878,"남자애</w>":3879,"힘들겠네요</w>":3880,"힘들겠지</w>":3881,"시간에</w>":3882,"아니야</w>":3883,"어떻게":3884,"필요하겠네요</w>":3885,"중요하죠</w>":3886,"정리할</w>":3887,"연애가</w>":3888,"헤어지자고</w>":3889,"이었길</w>":3890,"고백해보세요</w>":3891,"헤어졌는데</w>":3892,"공부는</w>":3893,"보내고</w>":3894,"아프네요</w>":3895,"기분전환":3896,"어디서</w>":3897,"남자친구와</w>":3898,"그렇지</w>":3899,"그렇지만</w>":3900,"썸남이랑</w>":3901,"마시고</w>":3902,"습관을</w>":3903,"핸드폰":3904,"관계를</w>":3905,"진심을</w>":3906,"좋을텐데</w>":3907,"알려주세요</w>":3908,"한달이</w>":3909,"느낌이</w>":3910,"노래방</w>":3911,"짜증나</w>":3912,"따뜻한</w>":3913,"힘들었겠어요</w>":3914,"지났네</w>":3915,"무엇이든</w>":3916,"시원한</w>":3917,"이겨낼</w>":3918,"부모님이</w>":3919,"기회가</w>":3920,"차분히</w>":3921,"스킨십</w>":3922,"최선의</w>":3923,"아름다운</w>":3924,"SNS</w>":3925,"가치관":3926,"그대로":3927,"다이어트</w>":3928,"부럽네요</w>":3929,"심호흡":3930,"사용해보세요</w>":3931,"30":3932,"6개월":3933,"ㅎㅎ</w>":3934,"가가</w>":3935,"가는게</w>":3936,"같은":3937,"거면</w>":3938,"걸어보세요</w>":3939,"결심":3940,"계절":3941,"고맙":3942,"고통":3943,"공무":3944,"과식":3945,"관계</w>":3946,"그럼":3947,"그대로</w>":3948,"그만큼</w>":3949,"긴장":3950,"까먹었":3951,"나고</w>":3952,"낫죠</w>":3953,"내리":3954,"냄새</w>":3955,"다음</w>":3956,"다리</w>":3957,"달콤":3958,"도시":3959,"도록</w>":3960,"돌려보세요</w>":3961,"돼서</w>":3962,"되기</w>":3963,"되는지</w>":3964,"드려보세요</w>":3965,"들었어</w>":3966,"떠난</w>":3967,"래요</w>":3968,"려서</w>":3969,"릴까</w>":3970,"마무":3971,"마스</w>":3972,"만한</w>":3973,"많아":3974,"말아":3975,"말하지</w>":3976,"맘에</w>":3977,"맞는걸까</w>":3978,"머릿":3979,"목표":3980,"문자":3981,"물리":3982,"뭐라도</w>":3983,"믿어보세요</w>":3984,"바쁘게</w>":3985,"반대":3986,"반지</w>":3987,"별로</w>":3988,"보일":3989,"부딪":3990,"부를</w>":3991,"부로</w>":3992,"분들</w>":3993,"불러":3994,"불안":3995,"빠르":3996,"상담</w>":3997,"새벽에</w>":3998,"샤워":3999,"선톡":4000,"설레</w>":4001,"성격":4002,"셔보세요</w>":4003,"소리가</w>":4004,"순위":4005,"술을</w>":4006,"슬퍼":4007,"시계":4008,"시는</w>":4009,"시겠어요</w>":4010,"시기가</w>":4011,"싶습니다</w>":4012,"썸의</w>":4013,"썸녀</w>":4014,"아껴":4015,"않는데</w>":4016,"않겠지만</w>":4017,"야근":4018,"야할까</w>":4019,"야하나</w>":4020,"약속":4021,"양이</w>":4022,"어리":4023,"어린":4024,"어제":4025,"억지":4026,"엄마</w>":4027,"없겠네요</w>":4028,"없지만</w>":4029,"에서":4030,"여러":4031,"여전히</w>":4032,"오랫":4033,"오르":4034,"온다</w>":4035,"와요</w>":4036,"외롭":4037,"용서":4038,"용돈</w>":4039,"우면</w>":4040,"울적":4041,"울어도</w>":4042,"웨딩":4043,"은근</w>":4044,"을거</w>":4045,"음을</w>":4046,"의사를</w>":4047,"이뤄":4048,"있음</w>":4049,"있으니</w>":4050,"잊으세요</w>":4051,"자격이</w>":4052,"잘못</w>":4053,"잘했어요</w>":4054,"전화를</w>":4055,"절약":4056,"정규":4057,"제를</w>":4058,"좋지만</w>":4059,"줘야</w>":4060,"지기</w>":4061,"지난</w>":4062,"진다</w>":4063,"차가":4064,"차리세요</w>":4065,"찾아</w>":4066,"청첩":4067,"초대":4068,"카드</w>":4069,"통보":4070,"풀릴</w>":4071,"피부":4072,"하게":4073,"하니까요</w>":4074,"해도":4075,"했나</w>":4076,"했을</w>":4077,"했더니</w>":4078,"헬스":4079,"휴대":4080,"흘러":4081,"힘듭니다</w>":4082,"좋아하는":4083,"생각하면</w>":4084,"친구의</w>":4085,"여자랑</w>":4086,"여자한테</w>":4087,"여자들은</w>":4088,"이별에는</w>":4089,"시간도</w>":4090,"만나기로</w>":4091,"이라니</w>":4092,"찾아올</w>":4093,"사귀기</w>":4094,"고백했는데</w>":4095,"들어와</w>":4096,"지금처럼</w>":4097,"지금이라도</w>":4098,"걱정하지</w>":4099,"하나봐</w>":4100,"표현이</w>":4101,"헤어졌네</w>":4102,"만들어요</w>":4103,"선물은</w>":4104,"혼자만</w>":4105,"하루가</w>":4106,"보고싶다</w>":4107,"남자친구랑</w>":4108,"있을지도</w>":4109,"달라지":4110,"인생이</w>":4111,"마시면</w>":4112,"다르겠지만</w>":4113,"관계가</w>":4114,"세상에</w>":4115,"스타일</w>":4116,"힘든가봅니다</w>":4117,"피곤해</w>":4118,"친구들이랑</w>":4119,"솔직하게</w>":4120,"두려워":4121,"따뜻하게</w>":4122,"다녀오세요</w>":4123,"거짓말</w>":4124,"데려다</w>":4125,"이러지</w>":4126,"귀여워</w>":4127,"일주일":4128,"프로포":4129,"한테만</w>":4130,"나눠보세요</w>":4131,"믿음이</w>":4132,"스스로에게</w>":4133,"쓰레기":4134,"바쁜가봐요</w>":4135,"누군가를</w>":4136,"도서관</w>":4137,"병원에</w>":4138,"sns":4139,"도시락</w>":4140,"ㅜㅜ</w>":4141,"가는":4142,"가락":4143,"각자":4144,"감기":4145,"개강":4146,"거랑</w>":4147,"걱정</w>":4148,"건데</w>":4149,"건강</w>":4150,"겨서</w>":4151,"겼어</w>":4152,"경쟁":4153,"곁에</w>":4154,"고싶다</w>":4155,"귀가</w>":4156,"그는</w>":4157,"글로</w>":4158,"기간</w>":4159,"기세요</w>":4160,"깨끗":4161,"꽃다":4162,"끝난</w>":4163,"나지</w>":4164,"나을까</w>":4165,"나보다</w>":4166,"나혼자</w>":4167,"난다</w>":4168,"났어</w>":4169,"낭비":4170,"냄새":4171,"너를</w>":4172,"넘어":4173,"놀랐":4174,"놀아":4175,"는것도</w>":4176,"달째</w>":4177,"되는게</w>":4178,"될지도</w>":4179,"드립니다</w>":4180,"드셔보세요</w>":4181,"든지</w>":4182,"들이":4183,"들어보세요</w>":4184,"듯한</w>":4185,"라서</w>":4186,"라리</w>":4187,"려구</w>":4188,"로워":4189,"르세요</w>":4190,"마실":4191,"막혀</w>":4192,"만으로</w>":4193,"많을</w>":4194,"맞추":4195,"맞았나봐요</w>":4196,"매달":4197,"매일":4198,"맥주</w>":4199,"먹었어</w>":4200,"멋지":4201,"몰래</w>":4202,"못해요</w>":4203,"무거":4204,"밀당":4205,"바쁜</w>":4206,"반가":4207,"받으":4208,"받으면</w>":4209,"발렌":4210,"밝혀":4211,"밤에</w>":4212,"번째</w>":4213,"베터":4214,"변명":4215,"보면서</w>":4216,"보이지</w>":4217,"봄이</w>":4218,"봐서</w>":4219,"부분</w>":4220,"빼빼":4221,"사이</w>":4222,"삶을</w>":4223,"생숭":4224,"생일</w>":4225,"생긴</w>":4226,"선을</w>":4227,"성장":4228,"세상</w>":4229,"센스":4230,"셀프":4231,"셨네요</w>":4232,"순수":4233,"숭생숭":4234,"쉬어도</w>":4235,"스테":4236,"습관</w>":4237,"시군요</w>":4238,"신발</w>":4239,"심심":4240,"싱숭생숭":4241,"써보세요</w>":4242,"썸을</w>":4243,"썸은</w>":4244,"않나봐요</w>":4245,"않아서</w>":4246,"알다가도</w>":4247,"애정":4248,"야겠지</w>":4249,"어두":4250,"없을까</w>":4251,"었으면</w>":4252,"에휴</w>":4253,"예뻐</w>":4254,"외로운</w>":4255,"우산":4256,"우리는</w>":4257,"움이</w>":4258,"유부":4259,"유증":4260,"은연</w>":4261,"의외":4262,"이란":4263,"이사":4264,"이럴</w>":4265,"인공":4266,"일상":4267,"일만</w>":4268,"일하는</w>":4269,"입을</w>":4270,"있지요</w>":4271,"있더라고요</w>":4272,"자리</w>":4273,"자면</w>":4274,"잤어</w>":4275,"장난</w>":4276,"점이</w>":4277,"졌으면</w>":4278,"종교</w>":4279,"좋으면</w>":4280,"주말이</w>":4281,"중국":4282,"중독":4283,"줬는데</w>":4284,"지마세요</w>":4285,"직장에서</w>":4286,"진급":4287,"집들이</w>":4288,"짝사랑은</w>":4289,"차단</w>":4290,"차라리</w>":4291,"축구</w>":4292,"취업":4293,"취향":4294,"콩깍":4295,"클럽":4296,"타기</w>":4297,"택시":4298,"통해</w>":4299,"투자":4300,"편할</w>":4301,"평소":4302,"평생</w>":4303,"하셔":4304,"하긴</w>":4305,"하라고</w>":4306,"하지는</w>":4307,"하느라</w>":4308,"한가요</w>":4309,"함을</w>":4310,"해서":4311,"해져":4312,"했던":4313,"했나봐</w>":4314,"현재를</w>":4315,"호감</w>":4316,"환승</w>":4317,"회원":4318,"회사는</w>":4319,"흐르":4320,"좋아했던</w>":4321,"좋아해주는</w>":4322,"사람이었":4323,"마음대로</w>":4324,"남자랑</w>":4325,"이별도</w>":4326,"이별에</w>":4327,"자신만</w>":4328,"아니니까요</w>":4329,"정리를</w>":4330,"정리하는</w>":4331,"행복을</w>":4332,"행복은</w>":4333,"연애에</w>":4334,"연애로</w>":4335,"결혼은</w>":4336,"결혼식</w>":4337,"헤어지지</w>":4338,"헤어지면</w>":4339,"고민임</w>":4340,"고백을</w>":4341,"고백해도</w>":4342,"조금이라도</w>":4343,"감정의</w>":4344,"해주면</w>":4345,"상대에게</w>":4346,"가능해요</w>":4347,"스러워</w>":4348,"있었으면</w>":4349,"표현을</w>":4350,"표현해보세요</w>":4351,"알아차":4352,"다가가보세요</w>":4353,"상처받":4354,"보내는</w>":4355,"아프다</w>":4356,"하루를</w>":4357,"스트레칭":4358,"노력하는</w>":4359,"선택일</w>":4360,"여자친구에게</w>":4361,"이유는</w>":4362,"도움을</w>":4363,"어려워요</w>":4364,"답답해</w>":4365,"있을까요</w>":4366,"기대세요</w>":4367,"되었습니다</w>":4368,"인생을</w>":4369,"위로봇":4370,"이제야</w>":4371,"재미가</w>":4372,"현실을</w>":4373,"현실적인</w>":4374,"그리워":4375,"다르겠죠</w>":4376,"떨어져</w>":4377,"기다리면</w>":4378,"복잡하겠어요</w>":4379,"살아야</w>":4380,"도와주":4381,"솔직한</w>":4382,"거리를</w>":4383,"배우는</w>":4384,"익숙해지":4385,"인가봅니다</w>":4386,"지났네요</w>":4387,"극복할</w>":4388,"자체가</w>":4389,"내려놓":4390,"마련이에요</w>":4391,"마련이죠</w>":4392,"태어난</w>":4393,"바쁘거나</w>":4394,"에게도</w>":4395,"드라이":4396,"어울리는</w>":4397,"스트레스가</w>":4398,"주말에</w>":4399,"헤아리는</w>":4400,"마지막으로</w>":4401,"로맨틱한</w>":4402,"로맨틱하네요</w>":4403,"두근거리":4404,"슬프네요</w>":4405,"이성으로</w>":4406,"부탁해보세요</w>":4407,"이기적":4408,"타이밍이</w>":4409,"감사합니다</w>":4410,"기간이</w>":4411,"연예인":4412,"연예인</w>":4413,"주변에</w>":4414,"크리스마스":4415,"본인의</w>":4416,"완벽한</w>":4417,"가끔은</w>":4418,"시어머니가</w>":4419,"고생했어요</w>":4420,"골라보세요</w>":4421,"오랫동안</w>":4422,"꽃다발</w>":4423,"3주":4424,"6년":4425,"가짐":4426,"가네요</w>":4427,"간단":4428,"감고</w>":4429,"갔다</w>":4430,"강아":4431,"갖지</w>":4432,"같다</w>":4433,"개인":4434,"거울":4435,"거는</w>":4436,"걸요</w>":4437,"것만</w>":4438,"것같아</w>":4439,"겨울":4440,"결과":4441,"고는</w>":4442,"과일</w>":4443,"과에</w>":4444,"과정이</w>":4445,"교통":4446,"그립":4447,"그를</w>":4448,"그분</w>":4449,"기숙":4450,"기원":4451,"길러":4452,"길게</w>":4453,"김에</w>":4454,"깨요</w>":4455,"끝이":4456,"끝에</w>":4457,"나보":4458,"나올</w>":4459,"나가는</w>":4460,"나만의</w>":4461,"남지</w>":4462,"남에게</w>":4463,"내려</w>":4464,"냈어</w>":4465,"너도</w>":4466,"노는</w>":4467,"놀이</w>":4468,"놀러</w>":4469,"눈치</w>":4470,"눈치가</w>":4471,"느려</w>":4472,"늘어요</w>":4473,"다는게</w>":4474,"다는건</w>":4475,"단계":4476,"달라</w>":4477,"담을</w>":4478,"대체</w>":4479,"대해서</w>":4480,"더워</w>":4481,"도를</w>":4482,"도는</w>":4483,"도네요</w>":4484,"동물":4485,"동물</w>":4486,"동거</w>":4487,"됐어요</w>":4488,"되겠지</w>":4489,"두달</w>":4490,"두달이</w>":4491,"듯합니다</w>":4492,"똑똑":4493,"라이":4494,"럽게</w>":4495,"렸나봐요</w>":4496,"로또</w>":4497,"로라도</w>":4498,"마셨":4499,"만드는</w>":4500,"많지</w>":4501,"많아서</w>":4502,"말이네요</w>":4503,"말해주세요</w>":4504,"말해볼까</w>":4505,"맛나게</w>":4506,"망가":4507,"맞는":4508,"먹으":4509,"먹을":4510,"먹어</w>":4511,"먹어보세요</w>":4512,"메모":4513,"면도":4514,"목소리를</w>":4515,"무색":4516,"뭐할까</w>":4517,"바다</w>":4518,"반응":4519,"받으세요</w>":4520,"버스":4521,"버릴</w>":4522,"보시":4523,"보이는</w>":4524,"봅시다</w>":4525,"봉사":4526,"부자":4527,"부지":4528,"부분이</w>":4529,"분명":4530,"불공":4531,"비난":4532,"비참":4533,"빼고</w>":4534,"뻔했어</w>":4535,"사귄":4536,"사면</w>":4537,"사는게</w>":4538,"사야지</w>":4539,"사정이</w>":4540,"삼겹":4541,"상사":4542,"설렘":4543,"성별":4544,"솔로":4545,"쉬운":4546,"스터":4547,"스는</w>":4548,"신중":4549,"신나는</w>":4550,"싫은":4551,"심경":4552,"싶다고</w>":4553,"싸워</w>":4554,"썸인가</w>":4555,"안나":4556,"애들</w>":4557,"야경":4558,"약이</w>":4559,"어주세요</w>":4560,"없어도</w>":4561,"에너":4562,"여우":4563,"였는데</w>":4564,"올라</w>":4565,"올려</w>":4566,"와의</w>":4567,"왤케</w>":4568,"외모":4569,"요즘":4570,"용기</w>":4571,"우스":4572,"웃을</w>":4573,"웬수":4574,"음이</w>":4575,"음식을</w>":4576,"의욕":4577,"이불":4578,"이번</w>":4579,"이미</w>":4580,"이지요</w>":4581,"이기도</w>":4582,"인내":4583,"일거라</w>":4584,"읽어보세요</w>":4585,"있기</w>":4586,"있나봅니다</w>":4587,"자괴":4588,"자장":4589,"잘해줘":4590,"저녁":4591,"저녁</w>":4592,"적금</w>":4593,"점에서</w>":4594,"정류":4595,"정을</w>":4596,"정보</w>":4597,"제자리":4598,"좋았는데</w>":4599,"줘보세요</w>":4600,"지하":4601,"직장":4602,"질거예요</w>":4603,"짧은</w>":4604,"참아":4605,"찾기를</w>":4606,"처럼":4607,"체육":4608,"쳤어</w>":4609,"최악":4610,"추워</w>":4611,"취미</w>":4612,"취해보세요</w>":4613,"치과</w>":4614,"컨디션</w>":4615,"텐데요</w>":4616,"통수</w>":4617,"트를</w>":4618,"특별":4619,"편안":4620,"평가":4621,"포근":4622,"표시":4623,"핑계":4624,"하기":4625,"하든</w>":4626,"하대</w>":4627,"하기는</w>":4628,"할거라</w>":4629,"할거야</w>":4630,"해보고</w>":4631,"했네요</w>":4632,"했지만</w>":4633,"했나봅니다</w>":4634,"허무":4635,"헛헛":4636,"휴가</w>":4637,"흐르고</w>":4638,"좋아하나</w>":4639,"좋아하시":4640,"좋아하는거</w>":4641,"사랑도</w>":4642,"사랑과</w>":4643,"사랑이네요</w>":4644,"사랑하는":4645,"사랑이었":4646,"사랑했나봐요</w>":4647,"사람인가봐요</w>":4648,"생각했는데</w>":4649,"생각했나봐요</w>":4650,"생각만해도</w>":4651,"연락처":4652,"이별통보</w>":4653,"시간이었":4654,"만나도</w>":4655,"아니죠</w>":4656,"아니지만</w>":4657,"모르게</w>":4658,"해야할</w>":4659,"행복해":4660,"행복해지":4661,"결혼할</w>":4662,"결혼하면</w>":4663,"결혼해도</w>":4664,"하는걸</w>":4665,"오늘이</w>":4666,"오늘따라</w>":4667,"고백하면</w>":4668,"준비하는</w>":4669,"후회는</w>":4670,"받아보세요</w>":4671,"짝녀에게</w>":4672,"걱정이</w>":4673,"어떨까</w>":4674,"알아보고</w>":4675,"공부해서</w>":4676,"다가가</w>":4677,"만들고</w>":4678,"물어보는게</w>":4679,"생겼네</w>":4680,"생겼으면</w>":4681,"기억이</w>":4682,"보내주세요</w>":4683,"이해가</w>":4684,"혼자도</w>":4685,"궁금해요</w>":4686,"누구든</w>":4687,"안되네</w>":4688,"하루도</w>":4689,"노력하겠습니다</w>":4690,"관심사를</w>":4691,"여행도</w>":4692,"그러고</w>":4693,"여자친구한테</w>":4694,"어디까지</w>":4695,"사이에</w>":4696,"그렇다면</w>":4697,"일어났":4698,"현실의</w>":4699,"습관이네요</w>":4700,"다르겠지요</w>":4701,"데이트를</w>":4702,"세상은</w>":4703,"세상에서</w>":4704,"기다리는게</w>":4705,"하시군요</w>":4706,"회사와</w>":4707,"챙겨드세요</w>":4708,"사람들은</w>":4709,"느낌이야</w>":4710,"의미부":4711,"싫어하는</w>":4712,"끝났네</w>":4713,"끝났어</w>":4714,"실수를</w>":4715,"그럴까</w>":4716,"따뜻할</w>":4717,"힘들었을</w>":4718,"머리랑</w>":4719,"가족이</w>":4720,"생활이</w>":4721,"좋아하나봐요</w>":4722,"버렸네</w>":4723,"시원하게</w>":4724,"여유가</w>":4725,"거짓말":4726,"추천해요</w>":4727,"나아졌":4728,"데려다":4729,"우울해</w>":4730,"환승이별</w>":4731,"기회를</w>":4732,"에게나</w>":4733,"방학이</w>":4734,"관리하세요</w>":4735,"마셔야지</w>":4736,"소식이네요</w>":4737,"스킨십":4738,"불편해</w>":4739,"흔들리지</w>":4740,"2주가</w>":4741,"끝나고</w>":4742,"생기면</w>":4743,"거기까지인가봐요</w>":4744,"나타날</w>":4745,"헤어져야</w>":4746,"크리스마스</w>":4747,"모든걸</w>":4748,"우연히</w>":4749,"이번에는</w>":4750,"종교가</w>":4751,"집안일</w>":4752,"괜찮아졌길</w>":4753,"가벼운</w>":4754,"하늘을</w>":4755,"기념일</w>":4756,"미세먼지</w>":4757,"긍정적인</w>":4758,"나쁘지</w>":4759,"유지하는</w>":4760,"부터는</w>":4761,"우선순위":4762,"아무렇지도</w>":4763,"단단히</w>":4764,"소화제</w>":4765,"그럼요</w>":4766,"까먹었다</w>":4767,"달콤한</w>":4768,"마무리</w>":4769,"정규직</w>":4770,"청첩장</w>":4771,"휴대폰</w>":4772,"빼빼로</w>":4773,"회원정보</w>":4774,"강아지</w>":4775,"기숙사</w>":4776,"3년</w>":4777,"4개월":4778,"7년":4779,"8년</w>":4780,"가만":4781,"가길</w>":4782,"간사":4783,"간대</w>":4784,"간접적이든</w>":4785,"갈거예요</w>":4786,"갔는데</w>":4787,"강렬":4788,"같다고</w>":4789,"같아서</w>":4790,"거였":4791,"거요</w>":4792,"거울</w>":4793,"거라고</w>":4794,"거겠지</w>":4795,"건조":4796,"걸릴</w>":4797,"걸까요</w>":4798,"것들이</w>":4799,"것처럼</w>":4800,"겨우</w>":4801,"결국":4802,"계속":4803,"고칠</w>":4804,"고싶은데</w>":4805,"그사람</w>":4806,"그분이</w>":4807,"근처</w>":4808,"기력":4809,"기준":4810,"기적으로</w>":4811,"깨닫":4812,"꿈은</w>":4813,"끝도</w>":4814,"끝나</w>":4815,"난방":4816,"난거</w>":4817,"남들이</w>":4818,"낭만":4819,"내게</w>":4820,"내일도</w>":4821,"냉정":4822,"너는</w>":4823,"노트":4824,"놀죠</w>":4825,"는다고</w>":4826,"늦은</w>":4827,"다정":4828,"답장이</w>":4829,"데이</w>":4830,"동료":4831,"동호":4832,"되는":4833,"되겠어요</w>":4834,"될거예요</w>":4835,"드가</w>":4836,"든든":4837,"들리":4838,"들었":4839,"들지</w>":4840,"떠났":4841,"라우":4842,"러워</w>":4843,"려나</w>":4844,"를수록</w>":4845,"리러</w>":4846,"마침":4847,"만큼":4848,"만들</w>":4849,"많으면</w>":4850,"말하고</w>":4851,"말해도</w>":4852,"말라고</w>":4853,"맛난</w>":4854,"맞을까</w>":4855,"맞는지</w>":4856,"맞을거예요</w>":4857,"매주</w>":4858,"먹지</w>":4859,"먼저":4860,"멋져요</w>":4861,"멍청":4862,"모른":4863,"모아":4864,"모자":4865,"몰라</w>":4866,"못했":4867,"무기력":4868,"뭐라</w>":4869,"미안해</w>":4870,"바이</w>":4871,"버티":4872,"버스</w>":4873,"버리는</w>":4874,"벚꽃</w>":4875,"별거</w>":4876,"보단</w>":4877,"보낼</w>":4878,"보이네요</w>":4879,"보다는</w>":4880,"복이</w>":4881,"봐보세요</w>":4882,"봐야지</w>":4883,"부드":4884,"부르":4885,"부담</w>":4886,"불러</w>":4887,"빠를수록</w>":4888,"사에</w>":4889,"사귄</w>":4890,"살았":4891,"살지</w>":4892,"살기</w>":4893,"살아요</w>":4894,"상상":4895,"새출":4896,"생리":4897,"서툴":4898,"선배가</w>":4899,"섬유":4900,"성숙":4901,"소비</w>":4902,"소개</w>":4903,"쇼핑</w>":4904,"술만</w>":4905,"스피":4906,"식에</w>":4907,"식으로</w>":4908,"신기":4909,"신청</w>":4910,"심리":4911,"싶었던</w>":4912,"썸타":4913,"썸에서</w>":4914,"쓰지</w>":4915,"아깝":4916,"아쉽":4917,"아기</w>":4918,"아빠가</w>":4919,"않은":4920,"알기</w>":4921,"앞두고</w>":4922,"애의</w>":4923,"야해요</w>":4924,"약을</w>":4925,"어떤":4926,"어필":4927,"업무</w>":4928,"에만</w>":4929,"여드":4930,"염색":4931,"였으면</w>":4932,"오빠":4933,"오지":4934,"오지</w>":4935,"오빠</w>":4936,"오니까</w>":4937,"올라":4938,"올랐":4939,"올해</w>":4940,"욕심":4941,"우선</w>":4942,"우리가</w>":4943,"워질</w>":4944,"워보세요</w>":4945,"위로</w>":4946,"유효":4947,"음악":4948,"이였":4949,"이사</w>":4950,"인간</w>":4951,"인다</w>":4952,"인기</w>":4953,"인인데</w>":4954,"인걸까</w>":4955,"일이죠</w>":4956,"일부터</w>":4957,"입지</w>":4958,"입이</w>":4959,"입고</w>":4960,"있어":4961,"잊어</w>":4962,"자도</w>":4963,"작아":4964,"잡는</w>":4965,"잡으세요</w>":4966,"장에</w>":4967,"적령":4968,"적게</w>":4969,"전공":4970,"전혀</w>":4971,"전화가</w>":4972,"전남친":4973,"정해보세요</w>":4974,"정신이</w>":4975,"제주":4976,"제게</w>":4977,"조건</w>":4978,"존재":4979,"졸업</w>":4980,"좋으":4981,"좋으시":4982,"주의":4983,"주기적으로</w>":4984,"죽고</w>":4985,"줄어":4986,"즐겁":4987,"증거를</w>":4988,"지치":4989,"지길</w>":4990,"지갑</w>":4991,"직접적이든</w>":4992,"진짜":4993,"차이가</w>":4994,"착한</w>":4995,"참는</w>":4996,"참아보세요</w>":4997,"철벽":4998,"쳐다":4999,"초콜":5000,"최근":5001,"추억</w>":5002,"치료":5003,"침대":5004,"침이</w>":5005,"커플</w>":5006,"케이":5007,"크림</w>":5008,"크닉</w>":5009,"키가</w>":5010,"터가</w>":5011,"터놓고</w>":5012,"트가</w>":5013,"트라우":5014,"티를</w>":5015,"풀렸":5016,"풀어":5017,"풀고</w>":5018,"풀어보세요</w>":5019,"피부</w>":5020,"피크닉</w>":5021,"하자":5022,"하실</w>":5023,"하우스":5024,"학기</w>":5025,"한다는</w>":5026,"한건가</w>":5027,"해가</w>":5028,"해진</w>":5029,"해낼</w>":5030,"해드릴게요</w>":5031,"해줄까</w>":5032,"해봐도</w>":5033,"향수</w>":5034,"호의":5035,"화가":5036,"확신":5037,"회복":5038,"회식</w>":5039,"후유증":5040,"흥미":5041,"사랑에는</w>":5042,"사람인데</w>":5043,"사람이라면</w>":5044,"생각해도</w>":5045,"생각할까</w>":5046,"생각해봐요</w>":5047,"친구도</w>":5048,"친구라고</w>":5049,"마음과</w>":5050,"헤어질</w>":5051,"연락처</w>":5052,"여자는</w>":5053,"여자와</w>":5054,"남자한테</w>":5055,"힘들지요</w>":5056,"이별하고</w>":5057,"괜찮은":5058,"아니고</w>":5059,"아니네요</w>":5060,"모르는게</w>":5061,"필요하겠어요</w>":5062,"정리하세요</w>":5063,"결혼적령":5064,"고백하는</w>":5065,"고백하고</w>":5066,"준비하고</w>":5067,"시작하세요</w>":5068,"그녀와</w>":5069,"그녀에게</w>":5070,"상대가</w>":5071,"가능해</w>":5072,"가능합니다</w>":5073,"하나라도</w>":5074,"이야기해도</w>":5075,"있었는데</w>":5076,"있었나요</w>":5077,"신경이</w>":5078,"신경을</w>":5079,"표현하는</w>":5080,"물어봐요</w>":5081,"상처받지</w>":5082,"선물로</w>":5083,"기억을</w>":5084,"혼자만의</w>":5085,"누구에게나</w>":5086,"아프지</w>":5087,"안되는데</w>":5088,"안되겠지</w>":5089,"결정은</w>":5090,"노력하면</w>":5091,"여행은</w>":5092,"그러게요</w>":5093,"아직은</w>":5094,"않았나봐요</w>":5095,"미련은</w>":5096,"받아들이기</w>":5097,"축하합니다</w>":5098,"답답한</w>":5099,"답답하네</w>":5100,"있을지</w>":5101,"되었나봐요</w>":5102,"사이에서</w>":5103,"잘못인</w>":5104,"그렇죠</w>":5105,"말씀하세요</w>":5106,"이제라도</w>":5107,"다음에</w>":5108,"다음부터는</w>":5109,"화장하는</w>":5110,"성공하길</w>":5111,"지내는</w>":5112,"기다리지</w>":5113,"좋을까요</w>":5114,"하시네요</w>":5115,"처음에</w>":5116,"연습이</w>":5117,"보여주세요</w>":5118,"만남이었길</w>":5119,"문제로</w>":5120,"무시하는</w>":5121,"떠나고</w>":5122,"떠나보세요</w>":5123,"아침이</w>":5124,"아닐까</w>":5125,"아픔의</w>":5126,"아픔을</w>":5127,"하다니</w>":5128,"하다면요</w>":5129,"생각나고</w>":5130,"엄마한테</w>":5131,"오래된</w>":5132,"가족들":5133,"바라지</w>":5134,"그만하고</w>":5135,"자체로</w>":5136,"느껴져</w>":5137,"별로라고</w>":5138,"부족한</w>":5139,"헤어짐을</w>":5140,"어렵네</w>":5141,"정도는</w>":5142,"정도로</w>":5143,"하려면</w>":5144,"환승은</w>":5145,"기다려주세요</w>":5146,"아름답":5147,"태어났":5148,"사람이니까요</w>":5149,"놀러가고</w>":5150,"당연하죠</w>":5151,"드라마</w>":5152,"헤아리지</w>":5153,"두근거":5154,"키우고</w>":5155,"힘내지</w>":5156,"힘들어하지</w>":5157,"흔들리":5158,"거기까지였나봐요</w>":5159,"버텨보세요</w>":5160,"카페에서</w>":5161,"결정이었을텐데</w>":5162,"그랬나봐요</w>":5163,"벗어나":5164,"학교에서</w>":5165,"경험이</w>":5166,"느끼는</w>":5167,"모든게</w>":5168,"배고파</w>":5169,"상담을</w>":5170,"속상해</w>":5171,"없애는</w>":5172,"비교하지</w>":5173,"아까워</w>":5174,"정말로</w>":5175,"계획을</w>":5176,"미친듯이</w>":5177,"사회생활":5178,"자세히</w>":5179,"냉장고</w>":5180,"달달한</w>":5181,"말투가</w>":5182,"번호를</w>":5183,"기분전환을</w>":5184,"공무원</w>":5185,"억지로라도</w>":5186,"해도될까</w>":5187,"발렌타인":5188,"밝혀보세요</w>":5189,"이란게</w>":5190,"중국어</w>":5191,"위로봇입니다</w>":5192,"봉사활":5193,"불공평":5194,"정류장에서</w>":5195,"지하철":5196,"연락처를</w>":5197,"가만히</w>":5198,"동료가</w>":5199,"초콜릿</w>":5200,"후유증이</w>":5201,"0일</w>":5202,"1주":5203,"2달</w>":5204,"3개월</w>":5205,"가늠":5206,"가득":5207,"가야</w>":5208,"가져</w>":5209,"가지만</w>":5210,"가사가</w>":5211,"갈때</w>":5212,"감당":5213,"감성":5214,"감수":5215,"감은</w>":5216,"감히</w>":5217,"갔다":5218,"갔네</w>":5219,"강습</w>":5220,"같이":5221,"거지":5222,"거도</w>":5223,"거에</w>":5224,"거둘</w>":5225,"건가요</w>":5226,"걸려</w>":5227,"게도</w>":5228,"겠음</w>":5229,"겠는데</w>":5230,"결과</w>":5231,"결정</w>":5232,"겼는데</w>":5233,"고가</w>":5234,"고쳐</w>":5235,"곰곰":5236,"공감":5237,"공통":5238,"공시</w>":5239,"공통</w>":5240,"교회</w>":5241,"구멍":5242,"구해보세요</w>":5243,"구하세요</w>":5244,"군침이</w>":5245,"귀를</w>":5246,"그가</w>":5247,"그럼</w>":5248,"그저</w>":5249,"극복</w>":5250,"근차":5251,"기도":5252,"기프":5253,"기운</w>":5254,"길어</w>":5255,"길에서</w>":5256,"김치":5257,"깊게</w>":5258,"꾸며":5259,"끼리</w>":5260,"나누":5261,"나와":5262,"나왔":5263,"나온</w>":5264,"나는데</w>":5265,"나에게</w>":5266,"나오세요</w>":5267,"나을지도</w>":5268,"나한테만</w>":5269,"남기":5270,"낫겠지</w>":5271,"내기</w>":5272,"넘었네</w>":5273,"놀다</w>":5274,"놓지</w>":5275,"놓으세요</w>":5276,"누구</w>":5277,"느낀":5278,"느려":5279,"느낄</w>":5280,"는걸</w>":5281,"는구나</w>":5282,"다되":5283,"다시":5284,"단순":5285,"단호":5286,"달려":5287,"담배":5288,"대리":5289,"대중":5290,"대출</w>":5291,"대화가</w>":5292,"던게</w>":5293,"덜할</w>":5294,"도대체</w>":5295,"동감":5296,"동성":5297,"두번째</w>":5298,"뒤에서</w>":5299,"듣기</w>":5300,"듣는데</w>":5301,"들면</w>":5302,"들에게</w>":5303,"들여보세요</w>":5304,"딸기</w>":5305,"떠난":5306,"떠오":5307,"떠세요</w>":5308,"떠보는</w>":5309,"뜻대로</w>":5310,"런하시네요</w>":5311,"려나봐요</w>":5312,"려주세요</w>":5313,"력을</w>":5314,"로봇":5315,"로는</w>":5316,"로리</w>":5317,"린다</w>":5318,"마다":5319,"마련</w>":5320,"막힌":5321,"막차</w>":5322,"만날":5323,"많이":5324,"많네</w>":5325,"많다</w>":5326,"말했어</w>":5327,"말해봐요</w>":5328,"말해줘</w>":5329,"맛도</w>":5330,"맛있어요</w>":5331,"망했어</w>":5332,"맞지</w>":5333,"매번</w>":5334,"머리는</w>":5335,"먹으면서</w>":5336,"메뉴</w>":5337,"며칠</w>":5338,"명절</w>":5339,"모아서</w>":5340,"못잊":5341,"못하면</w>":5342,"못했나봐요</w>":5343,"무작":5344,"물이</w>":5345,"뭐하":5346,"미워</w>":5347,"미끄러":5348,"바꿀":5349,"바닥":5350,"바디":5351,"바빠</w>":5352,"반에</w>":5353,"발표":5354,"발이</w>":5355,"발을</w>":5356,"발목</w>":5357,"버린</w>":5358,"버려</w>":5359,"버림</w>":5360,"법을</w>":5361,"변하는</w>":5362,"변하지</w>":5363,"보험":5364,"보며</w>":5365,"보자고</w>":5366,"불면":5367,"불타":5368,"붙여보세요</w>":5369,"비행":5370,"빌려보세요</w>":5371,"빠졌":5372,"빠지는</w>":5373,"뽑기</w>":5374,"사겨":5375,"사업</w>":5376,"사보세요</w>":5377,"살면</w>":5378,"살면서</w>":5379,"삶의</w>":5380,"상의":5381,"상황</w>":5382,"새학기</w>":5383,"생이</w>":5384,"서류":5385,"선택</w>":5386,"세우":5387,"셀카</w>":5388,"셔요</w>":5389,"셨군요</w>":5390,"소모":5391,"소액":5392,"소유":5393,"소심해</w>":5394,"속은</w>":5395,"수면":5396,"수학":5397,"수를</w>":5398,"수다</w>":5399,"수건</w>":5400,"수염</w>":5401,"술먹고</w>":5402,"쉬어야</w>":5403,"쉽진</w>":5404,"슈퍼":5405,"스키":5406,"스팸</w>":5407,"스키</w>":5408,"슬픔":5409,"슬쩍</w>":5410,"시생":5411,"식도</w>":5412,"신뢰":5413,"실례":5414,"실내</w>":5415,"싫다고</w>":5416,"심어":5417,"심을</w>":5418,"심으로</w>":5419,"심한가봐요</w>":5420,"심하겠네요</w>":5421,"싶다는</w>":5422,"싸움</w>":5423,"썸일</w>":5424,"썸만</w>":5425,"썼어</w>":5426,"쓸데":5427,"씻고</w>":5428,"아련":5429,"아쉬":5430,"아주</w>":5431,"아는데도</w>":5432,"악몽":5433,"안경":5434,"안돼":5435,"안전":5436,"안전</w>":5437,"안에</w>":5438,"않는게</w>":5439,"않겠어요</w>":5440,"않을까</w>":5441,"않지만</w>":5442,"알뜰":5443,"알았어</w>":5444,"앞머리</w>":5445,"애교":5446,"애석":5447,"애틋":5448,"야돼</w>":5449,"야겠어</w>":5450,"야하는데</w>":5451,"양해":5452,"양말</w>":5453,"얘기를</w>":5454,"어둠":5455,"어젯":5456,"어플</w>":5457,"어머</w>":5458,"언니":5459,"없었":5460,"없고</w>":5461,"없는게</w>":5462,"없겠지</w>":5463,"에선</w>":5464,"영수":5465,"오락":5466,"오토":5467,"오히":5468,"오길</w>":5469,"오랜</w>":5470,"올거</w>":5471,"올거예요</w>":5472,"옷이</w>":5473,"요일</w>":5474,"요금</w>":5475,"우는</w>":5476,"우린</w>":5477,"우니까</w>":5478,"운데</w>":5479,"웃어보세요</w>":5480,"월급</w>":5481,"웨딩</w>":5482,"위해서":5483,"은퇴":5484,"은걸까</w>":5485,"을때</w>":5486,"음식</w>":5487,"이벤":5488,"이뻐":5489,"이직":5490,"인턴</w>":5491,"인건가</w>":5492,"인스타":5493,"일요":5494,"일차</w>":5495,"일단</w>":5496,"일상</w>":5497,"일들이</w>":5498,"잃어":5499,"잇몸":5500,"있어야</w>":5501,"자가</w>":5502,"자를</w>":5503,"자요</w>":5504,"자기도</w>":5505,"잘해</w>":5506,"잠재":5507,"장소":5508,"적이야</w>":5509,"적이고</w>":5510,"전환</w>":5511,"전남친이</w>":5512,"절한</w>":5513,"점은</w>":5514,"점심</w>":5515,"접적으로</w>":5516,"접어두":5517,"졌는데</w>":5518,"조용":5519,"좋게</w>":5520,"좋고</w>":5521,"좋습니다</w>":5522,"주름":5523,"주저":5524,"줄여보세요</w>":5525,"지겨":5526,"지긋":5527,"지냈":5528,"지는":5529,"지옥":5530,"지진":5531,"지키":5532,"지죠</w>":5533,"지세요</w>":5534,"지말고</w>":5535,"지르고</w>":5536,"진지":5537,"질거</w>":5538,"짜장":5539,"짧지</w>":5540,"째인데</w>":5541,"찌질":5542,"찜질":5543,"차갑":5544,"차례":5545,"차리":5546,"차이</w>":5547,"차근차":5548,"참지</w>":5549,"책임":5550,"청소</w>":5551,"쳐보세요</w>":5552,"최대한</w>":5553,"축복":5554,"취업</w>":5555,"치맥":5556,"치열":5557,"치과에</w>":5558,"친이랑</w>":5559,"친해지":5560,"칼로리</w>":5561,"코가</w>":5562,"타던</w>":5563,"타다가</w>":5564,"탈출":5565,"테리":5566,"트업":5567,"티가</w>":5568,"파혼":5569,"파먹기</w>":5570,"페북</w>":5571,"편하":5572,"평온":5573,"푸는</w>":5574,"피자</w>":5575,"하지도</w>":5576,"하더니</w>":5577,"학점</w>":5578,"학원을</w>":5579,"한잔":5580,"한다고</w>":5581,"한가봅니다</w>":5582,"할까봐</w>":5583,"해외":5584,"해봐</w>":5585,"해졌어</w>":5586,"했길</w>":5587,"향이</w>":5588,"현실</w>":5589,"형편":5590,"형이</w>":5591,"호감":5592,"혼란":5593,"화이트":5594,"휴식을</w>":5595,"휴가가</w>":5596,"희생":5597,"힘껏</w>":5598,"좋아질</w>":5599,"좋아했는데</w>":5600,"좋아할거예요</w>":5601,"사랑해":5602,"사랑할수록</w>":5603,"사람만</w>":5604,"생각날</w>":5605,"마음이라도</w>":5606,"연락해서</w>":5607,"여자들이</w>":5608,"남자들</w>":5609,"힘들고</w>":5610,"힘들거예요</w>":5611,"힘들지도</w>":5612,"이별했습니다</w>":5613,"시간이겠네요</w>":5614,"만나길</w>":5615,"만나는데</w>":5616,"괜찮지만</w>":5617,"괜찮다면</w>":5618,"자신감</w>":5619,"아니랍니다</w>":5620,"필요한가봐요</w>":5621,"해야돼</w>":5622,"해야하나</w>":5623,"중요할</w>":5624,"정리해보세요</w>":5625,"행복할까</w>":5626,"행복하길</w>":5627,"연애의</w>":5628,"연애하고</w>":5629,"이라서</w>":5630,"오늘부터</w>":5631,"사귀면</w>":5632,"사귀어도</w>":5633,"헤어지자":5634,"헤어지세요</w>":5635,"헤어지는게</w>":5636,"고민하게</w>":5637,"이었어</w>":5638,"준비하세요</w>":5639,"들어도</w>":5640,"들어서</w>":5641,"지금보다</w>":5642,"힘드신가봐요</w>":5643,"받아보는</w>":5644,"시작해도</w>":5645,"감정은</w>":5646,"해주지</w>":5647,"가능할까</w>":5648,"걱정은</w>":5649,"걱정되겠네요</w>":5650,"하나봅니다</w>":5651,"이야기해</w>":5652,"아닌가봐요</w>":5653,"공부하기</w>":5654,"다가가는</w>":5655,"만들려고</w>":5656,"물어봐</w>":5657,"상처는</w>":5658,"생겼어요</w>":5659,"혼자서도</w>":5660,"누구도</w>":5661,"아프고</w>":5662,"하루에</w>":5663,"하루에도</w>":5664,"하루종일</w>":5665,"결정할</w>":5666,"노력하고</w>":5667,"서로가</w>":5668,"지나간</w>":5669,"선택일거라</w>":5670,"기분은</w>":5671,"여행이</w>":5672,"그러는</w>":5673,"보고싶네</w>":5674,"언제든</w>":5675,"언제까지</w>":5676,"신경쓰는</w>":5677,"어디로</w>":5678,"남자친구한테</w>":5679,"운동으로</w>":5680,"기대가</w>":5681,"사이인데</w>":5682,"잘못된</w>":5683,"위로해":5684,"추억은</w>":5685,"추억으로</w>":5686,"재미있어요</w>":5687,"상대방도</w>":5688,"그리워</w>":5689,"데이트가</w>":5690,"나가기</w>":5691,"세상에는</w>":5692,"건강이</w>":5693,"성공을</w>":5694,"성공할</w>":5695,"전화하는</w>":5696,"스타일":5697,"스타일이</w>":5698,"스타트업":5699,"회사에</w>":5700,"회사에는</w>":5701,"처음에는</w>":5702,"처음부터</w>":5703,"복잡한</w>":5704,"연습해보세요</w>":5705,"힘든데</w>":5706,"도와줘</w>":5707,"만남과</w>":5708,"문제는</w>":5709,"의미가</w>":5710,"의미를</w>":5711,"의미있는</w>":5712,"인정받고</w>":5713,"피곤한가봐요</w>":5714,"노래를</w>":5715,"싫어하지</w>":5716,"끝났으면</w>":5717,"실수할</w>":5718,"실수하지</w>":5719,"하셨어요</w>":5720,"그럴만</w>":5721,"그럴지도</w>":5722,"마주치":5723,"순간이</w>":5724,"배우면</w>":5725,"운명이</w>":5726,"능력을</w>":5727,"않을거예요</w>":5728,"바라는</w>":5729,"집착해</w>":5730,"집착하는</w>":5731,"1년이</w>":5732,"가야죠</w>":5733,"가야겠죠</w>":5734,"무엇이</w>":5735,"무엇을</w>":5736,"해보는게</w>":5737,"시켜보세요</w>":5738,"추천합니다</w>":5739,"추천해줘</w>":5740,"별로야</w>":5741,"아이돌":5742,"아이스":5743,"응원해요</w>":5744,"재회를</w>":5745,"나아질</w>":5746,"도전해</w>":5747,"싸우면</w>":5748,"싸우면서</w>":5749,"얼마든지</w>":5750,"포기하는</w>":5751,"하려는</w>":5752,"사람이다</w>":5753,"바쁘면</w>":5754,"충전하세요</w>":5755,"커피향</w>":5756,"당연히</w>":5757,"진정으로</w>":5758,"비밀번호</w>":5759,"소식이</w>":5760,"예민한가봐요</w>":5761,"차분하게</w>":5762,"드시고</w>":5763,"해줘서</w>":5764,"그분의</w>":5765,"많은가봐요</w>":5766,"월급이</w>":5767,"최선을</w>":5768,"경우가</w>":5769,"경우도</w>":5770,"보냈어</w>":5771,"얼굴이</w>":5772,"청소를</w>":5773,"선생님이</w>":5774,"집중이</w>":5775,"집중하세요</w>":5776,"귀엽게</w>":5777,"상관없어요</w>":5778,"안녕히</w>":5779,"안녕하세요</w>":5780,"좋아한다고</w>":5781,"괴롭게</w>":5782,"이용해주세요</w>":5783,"집안일을</w>":5784,"미래에</w>":5785,"여기까지</w>":5786,"영원한</w>":5787,"잠수이별":5788,"올려달라고</w>":5789,"공허함이</w>":5790,"남사친이</w>":5791,"자격증</w>":5792,"지나갔길</w>":5793,"안타깝네요</w>":5794,"다양하게</w>":5795,"인상이</w>":5796,"현금영수":5797,"고쳐쓰는</w>":5798,"보이스피":5799,"신고하세요</w>":5800,"심호흡해보세요</w>":5801,"고맙다</w>":5802,"보일러":5803,"부딪혔":5804,"약속을</w>":5805,"피부가</w>":5806,"달라지는게</w>":5807,"각자의</w>":5808,"깨끗하게</w>":5809,"놀아줘</w>":5810,"매일매일</w>":5811,"멋지게</w>":5812,"센스있는</w>":5813,"애정표현":5814,"의외로</w>":5815,"스트레칭을</w>":5816,"두근거리겠어요</w>":5817,"가짐에</w>":5818,"거울을</w>":5819,"교통을</w>":5820,"부지런하시네요</w>":5821,"삼겹살</w>":5822,"심경의</w>":5823,"의욕이</w>":5824,"체육대":5825,"특별한</w>":5826,"동호회</w>":5827,"부드럽게</w>":5828,"생리통</w>":5829,"여드름</w>":5830,"제주도</w>":5831,"최근에</w>":5832,"흥미를</w>":5833,"벗어나세요</w>":5834,"곰곰히</w>":5835,"기프트":5836,"꾸며보세요</w>":5837,"대중교통을</w>":5838,"무작정</w>":5839,"양해를</w>":5840,"오토바이</w>":5841,"오히려</w>":5842,"차근차근</w>":5843,"2주</w>":5844,"3달":5845,"3주</w>":5846,"4년</w>":5847,"5개월</w>":5848,"6개월</w>":5849,"ㅋㅋ</w>":5850,"가볍":5851,"가스":5852,"가려</w>":5853,"가족</w>":5854,"가려고</w>":5855,"각이</w>":5856,"간소":5857,"간질":5858,"갈수록</w>":5859,"같았":5860,"같으면</w>":5861,"개념":5862,"개인</w>":5863,"거리가</w>":5864,"거르세요</w>":5865,"건가봐요</w>":5866,"걸어</w>":5867,"것에</w>":5868,"것들</w>":5869,"것입니다</w>":5870,"것들을</w>":5871,"겠다고</w>":5872,"경우</w>":5873,"계절</w>":5874,"고고</w>":5875,"곳을</w>":5876,"공개":5877,"공원</w>":5878,"과의</w>":5879,"괜한</w>":5880,"교양":5881,"교회":5882,"구속":5883,"구경</w>":5884,"군대":5885,"근처":5886,"긁었어</w>":5887,"금수":5888,"기한":5889,"기네</w>":5890,"기에</w>":5891,"기댈</w>":5892,"길에</w>":5893,"길은</w>":5894,"깜빡":5895,"꼼꼼":5896,"끝날</w>":5897,"끝인가</w>":5898,"나날":5899,"나약":5900,"나을":5901,"나니</w>":5902,"난히</w>":5903,"난다면</w>":5904,"날까</w>":5905,"남겨":5906,"남아":5907,"남은</w>":5908,"남아</w>":5909,"남았나봐요</w>":5910,"납니다</w>":5911,"났네</w>":5912,"내일":5913,"내내</w>":5914,"냈어요</w>":5915,"냐구</w>":5916,"너덜":5917,"너가</w>":5918,"너한테</w>":5919,"네ㅜㅜ</w>":5920,"놀아</w>":5921,"눈은</w>":5922,"눈에서</w>":5923,"느냐에</w>":5924,"는날</w>":5925,"늙어":5926,"능에</w>":5927,"늦는</w>":5928,"늦어</w>":5929,"다를":5930,"다네</w>":5931,"다운</w>":5932,"다면요</w>":5933,"단톡":5934,"단둘이</w>":5935,"달콩</w>":5936,"담긴</w>":5937,"담해보세요</w>":5938,"답장":5939,"답은</w>":5940,"당분":5941,"대기":5942,"대로":5943,"대해보세요</w>":5944,"더욱</w>":5945,"더러워</w>":5946,"독한</w>":5947,"돈은</w>":5948,"됐습니다</w>":5949,"되돌":5950,"되게</w>":5951,"되어야</w>":5952,"두절":5953,"두번</w>":5954,"두셨네요</w>":5955,"뒤숭":5956,"뒤통수</w>":5957,"뒷담":5958,"드레":5959,"드려</w>":5960,"들까</w>":5961,"들으면</w>":5962,"등을</w>":5963,"따르":5964,"때매</w>":5965,"때예요</w>":5966,"때마다</w>":5967,"떨쳐":5968,"똑같아</w>":5969,"라네</w>":5970,"러보세요</w>":5971,"력은</w>":5972,"련만</w>":5973,"로부터</w>":5974,"롭게</w>":5975,"름이</w>":5976,"릅니다</w>":5977,"마자</w>":5978,"만드":5979,"말한</w>":5980,"말걸</w>":5981,"말로</w>":5982,"말씀</w>":5983,"말해서</w>":5984,"맘을</w>":5985,"맛집</w>":5986,"망한</w>":5987,"망했다</w>":5988,"맞춤":5989,"맞나</w>":5990,"맞아요</w>":5991,"맞으면</w>":5992,"맡겨보세요</w>":5993,"매너</w>":5994,"먹는데</w>":5995,"먹자고</w>":5996,"먼지</w>":5997,"먼지가</w>":5998,"멀리</w>":5999,"면허</w>":6000,"모임":6001,"모를</w>":6002,"목이</w>":6003,"몸무":6004,"몸에</w>":6005,"못해서</w>":6006,"못하는게</w>":6007,"못했던</w>":6008,"무의":6009,"무한":6010,"문이</w>":6011,"문을</w>":6012,"문신</w>":6013,"물어</w>":6014,"뭐임</w>":6015,"미화":6016,"믿으세요</w>":6017,"바지</w>":6018,"바꿀</w>":6019,"바르고</w>":6020,"밖은</w>":6021,"밖에서</w>":6022,"반갑":6023,"배터":6024,"배달</w>":6025,"버시":6026,"번의</w>":6027,"번씩</w>":6028,"벌고</w>":6029,"변해":6030,"병원</w>":6031,"보러":6032,"보름":6033,"보게</w>":6034,"보는데</w>":6035,"보니까</w>":6036,"보이네</w>":6037,"보는건</w>":6038,"복전":6039,"볼게요</w>":6040,"봄은</w>":6041,"봤네</w>":6042,"부부":6043,"부디</w>":6044,"분들":6045,"분명</w>":6046,"불금":6047,"비오":6048,"비하":6049,"빌려":6050,"빌려</w>":6051,"빌어요</w>":6052,"빠져</w>":6053,"사내":6054,"사도</w>":6055,"사냐</w>":6056,"사실</w>":6057,"살찐</w>":6058,"살펴</w>":6059,"살다보면</w>":6060,"상종":6061,"상하지</w>":6062,"상사가</w>":6063,"새해</w>":6064,"새벽</w>":6065,"생겨</w>":6066,"생겨서</w>":6067,"서지</w>":6068,"서야</w>":6069,"서툰</w>":6070,"선에서</w>":6071,"설렜":6072,"설명":6073,"성형</w>":6074,"세포":6075,"센터":6076,"셨나</w>":6077,"셨겠어요</w>":6078,"소주</w>":6079,"소식</w>":6080,"소원을</w>":6081,"속도를</w>":6082,"손해":6083,"손에</w>":6084,"수상":6085,"수준":6086,"수업</w>":6087,"술은</w>":6088,"숨만</w>":6089,"스를</w>":6090,"슬퍼</w>":6091,"시도":6092,"시나</w>":6093,"시겠네요</w>":6094,"식단":6095,"식은</w>":6096,"식하는</w>":6097,"신하고</w>":6098,"신가요</w>":6099,"싫어도</w>":6100,"심이</w>":6101,"심한</w>":6102,"심장이</w>":6103,"싸웠":6104,"썸인</w>":6105,"쏟아":6106,"쓸쓸":6107,"쓸데</w>":6108,"아빠":6109,"아팠":6110,"아플":6111,"아플</w>":6112,"아님</w>":6113,"아니다</w>":6114,"안해":6115,"안할</w>":6116,"알게":6117,"알콩":6118,"알지</w>":6119,"았습니다</w>":6120,"액션":6121,"야해</w>":6122,"야경</w>":6123,"얘기</w>":6124,"어렸":6125,"어이":6126,"어쩔":6127,"어깨</w>":6128,"어보고</w>":6129,"없을":6130,"없겠지요</w>":6131,"없을거예요</w>":6132,"었다</w>":6133,"었네요</w>":6134,"었습니다</w>":6135,"여름":6136,"여기</w>":6137,"여기까지":6138,"연속":6139,"연인</w>":6140,"염탐":6141,"였을</w>":6142,"였던</w>":6143,"옆에서</w>":6144,"예쁜":6145,"오셨":6146,"오죠</w>":6147,"오라고</w>":6148,"오빠가</w>":6149,"올게</w>":6150,"옷을</w>":6151,"와닿":6152,"완전":6153,"왔나봐요</w>":6154,"왕따":6155,"요리":6156,"우니</w>":6157,"운전</w>":6158,"운가봐요</w>":6159,"위기":6160,"유연":6161,"유학":6162,"유난히</w>":6163,"육아":6164,"으며</w>":6165,"을때는</w>":6166,"음악</w>":6167,"이나":6168,"이럴":6169,"이모":6170,"이자</w>":6171,"이긴</w>":6172,"이쁜</w>":6173,"이보다</w>":6174,"인간":6175,"인정</w>":6176,"인데요</w>":6177,"인테리":6178,"일반":6179,"일시":6180,"읽씹":6181,"입에</w>":6182,"입어도</w>":6183,"잊으려고</w>":6184,"자취":6185,"잔인":6186,"잘해":6187,"잘해주세요</w>":6188,"잘하는게</w>":6189,"잘지내":6190,"잘해줘</w>":6191,"잘해주는</w>":6192,"쟁취":6193,"저분":6194,"적을</w>":6195,"적은</w>":6196,"적이에요</w>":6197,"적이죠</w>":6198,"전세":6199,"전공</w>":6200,"정적인</w>":6201,"제안":6202,"졌네</w>":6203,"조카</w>":6204,"조절</w>":6205,"존재</w>":6206,"존재를</w>":6207,"좋네요</w>":6208,"좋지요</w>":6209,"주차":6210,"주가</w>":6211,"주면서</w>":6212,"주려고</w>":6213,"주제를</w>":6214,"주식으로</w>":6215,"죽을":6216,"준다면</w>":6217,"중고":6218,"중이야</w>":6219,"증을</w>":6220,"지루":6221,"지칠":6222,"지울</w>":6223,"지마</w>":6224,"지칠</w>":6225,"지겠네요</w>":6226,"지저분":6227,"진게</w>":6228,"질이</w>":6229,"질질</w>":6230,"짐을</w>":6231,"집니다</w>":6232,"짝사랑을</w>":6233,"짧게</w>":6234,"째네</w>":6235,"찍어</w>":6236,"찍고</w>":6237,"차이는</w>":6238,"착잡":6239,"참견":6240,"참석":6241,"찾는</w>":6242,"천재":6243,"최고</w>":6244,"추스":6245,"축의":6246,"출근</w>":6247,"층간소":6248,"치유":6249,"컴퓨":6250,"큰일이네요</w>":6251,"타다</w>":6252,"택배</w>":6253,"털어":6254,"테니까요</w>":6255,"퇴근</w>":6256,"틀린</w>":6257,"패턴</w>":6258,"페북":6259,"편의":6260,"편하겠죠</w>":6261,"포장":6262,"프라이":6263,"플라":6264,"필름</w>":6265,"하려</w>":6266,"하며</w>":6267,"하기가</w>":6268,"하지요</w>":6269,"하신가봐요</w>":6270,"하더라고요</w>":6271,"하느냐에</w>":6272,"한계":6273,"한국":6274,"한켠":6275,"한건</w>":6276,"한창</w>":6277,"한걸까</w>":6278,"한동안</w>":6279,"한다는데</w>":6280,"한숨만</w>":6281,"할줄</w>":6282,"할래</w>":6283,"함부로</w>":6284,"해본</w>":6285,"해보면</w>":6286,"했을까</w>":6287,"했나요</w>":6288,"행운을</w>":6289,"활용":6290,"휴가를</w>":6291,"흑역":6292,"흔적</w>":6293,"힘이":6294,"좋아서</w>":6295,"좋아하지</w>":6296,"좋아했으면</w>":6297,"좋아해줬으면</w>":6298,"사랑해요</w>":6299,"사랑하기</w>":6300,"사랑받고</w>":6301,"생각으로</w>":6302,"생각해서</w>":6303,"친구네</w>":6304,"친구는</w>":6305,"친구들</w>":6306,"친구와</w>":6307,"마음만</w>":6308,"마음인가봐요</w>":6309,"연락할</w>":6310,"연락했는데</w>":6311,"연락해볼까</w>":6312,"연락두절":6313,"여자도</w>":6314,"남자도</w>":6315,"남자애한테</w>":6316,"이별이란</w>":6317,"만나고":6318,"만나요</w>":6319,"만나러</w>":6320,"자신과</w>":6321,"자신으로</w>":6322,"아니라는</w>":6323,"모르겠네</w>":6324,"필요한게</w>":6325,"필요하다면요</w>":6326,"해야할":6327,"해야하는</w>":6328,"해야겠죠</w>":6329,"기다렸":6330,"중요한데</w>":6331,"정리될</w>":6332,"정리하고</w>":6333,"행복해보":6334,"짝남에게</w>":6335,"연애하는</w>":6336,"연애하면</w>":6337,"결혼식":6338,"결혼하는데</w>":6339,"사귀던</w>":6340,"헤어지고":6341,"헤어지는</w>":6342,"이었나봅니다</w>":6343,"고백은</w>":6344,"준비하는데</w>":6345,"들어주세요</w>":6346,"들어왔어</w>":6347,"후회를</w>":6348,"후회해도</w>":6349,"후회하기</w>":6350,"데이에</w>":6351,"받아서</w>":6352,"받아야</w>":6353,"시작이죠</w>":6354,"해주는게</w>":6355,"해주면서</w>":6356,"가능하겠죠</w>":6357,"걱정할</w>":6358,"걱정된다고</w>":6359,"이상형</w>":6360,"있었을</w>":6361,"아닌가요</w>":6362,"돌아가고</w>":6363,"물어보면</w>":6364,"상처도</w>":6365,"생겼네요</w>":6366,"기억의</w>":6367,"기억에서</w>":6368,"이해해</w>":6369,"이해할</w>":6370,"누구랑</w>":6371,"하루하루</w>":6372,"지나면</w>":6373,"때문일</w>":6374,"선택할</w>":6375,"선택이길</w>":6376,"그러게</w>":6377,"해지세요</w>":6378,"여자친구를</w>":6379,"신경쓰여</w>":6380,"어려울</w>":6381,"인연은</w>":6382,"미련도</w>":6383,"받아들일</w>":6384,"어디든</w>":6385,"남자친구를</w>":6386,"남자친구에게</w>":6387,"소개시켜":6388,"있을게요</w>":6389,"기대를</w>":6390,"기대하지</w>":6391,"달라진게</w>":6392,"되었네</w>":6393,"되었길</w>":6394,"상황이네요</w>":6395,"이어나가":6396,"잘못이</w>":6397,"잘못을</w>":6398,"인생이죠</w>":6399,"언젠가는</w>":6400,"추억에</w>":6401,"일어나는</w>":6402,"일어나서</w>":6403,"재미없어</w>":6404,"재미있게</w>":6405,"하고싶었던</w>":6406,"현실과</w>":6407,"습관이</w>":6408,"잊어야</w>":6409,"상대방에</w>":6410,"상대방에게</w>":6411,"다르죠</w>":6412,"나가야</w>":6413,"나가볼까</w>":6414,"세상이</w>":6415,"진심이</w>":6416,"성공하고</w>":6417,"전화해보세요</w>":6418,"지내길</w>":6419,"카톡이</w>":6420,"카톡을</w>":6421,"카톡으로</w>":6422,"잊혀질</w>":6423,"잊혀지지</w>":6424,"좋을지</w>":6425,"좋을텐데요</w>":6426,"하지말고</w>":6427,"먹어야겠다</w>":6428,"한달하고</w>":6429,"재밌는</w>":6430,"재밌어</w>":6431,"재밌다</w>":6432,"힘든가봐요</w>":6433,"만남이</w>":6434,"만남에</w>":6435,"인정하고</w>":6436,"인정해주세요</w>":6437,"사랑한다는</w>":6438,"하셨군요</w>":6439,"마주치는</w>":6440,"마주쳐보세요</w>":6441,"순간이네요</w>":6442,"순간이었을</w>":6443,"함께한</w>":6444,"함께할</w>":6445,"두려움을</w>":6446,"아픔이</w>":6447,"아픔은</w>":6448,"힘들었죠</w>":6449,"여친이랑</w>":6450,"운명적인</w>":6451,"머리카":6452,"먹었는데</w>":6453,"좋은거</w>":6454,"부담스러워</w>":6455,"가야돼</w>":6456,"더라구</w>":6457,"이겨내세요</w>":6458,"자존감</w>":6459,"자존감을</w>":6460,"해보려고</w>":6461,"영화관</w>":6462,"재회는</w>":6463,"후폭풍은</w>":6464,"도전하는</w>":6465,"싸우는</w>":6466,"헤어짐이</w>":6467,"다니는</w>":6468,"어렵죠</w>":6469,"대화로</w>":6470,"미치겠어</w>":6471,"미치겠습니다</w>":6472,"미치겠네</w>":6473,"연인은</w>":6474,"연인으로</w>":6475,"즐기면서</w>":6476,"이상형이</w>":6477,"이상형은</w>":6478,"남친이랑</w>":6479,"드라마":6480,"관리하는</w>":6481,"마셔도</w>":6482,"맞춰보세요</w>":6483,"끝내고</w>":6484,"드시면</w>":6485,"서운해</w>":6486,"만들어서</w>":6487,"일주일</w>":6488,"좋았던</w>":6489,"좋았으면</w>":6490,"지우고</w>":6491,"프로필</w>":6492,"잊혀지기도</w>":6493,"고마워</w>":6494,"되어가네</w>":6495,"사과하세요</w>":6496,"삭제하세요</w>":6497,"이기적인</w>":6498,"자유로워":6499,"한테도</w>":6500,"게임을</w>":6501,"당황했겠어요</w>":6502,"믿음을</w>":6503,"버텨요</w>":6504,"생일이네</w>":6505,"주변에서</w>":6506,"퇴근하고</w>":6507,"아름다워요</w>":6508,"동생한테</w>":6509,"쓰레기</w>":6510,"좋아한다는</w>":6511,"SNS":6512,"견디고</w>":6513,"바뀌게</w>":6514,"배고프":6515,"애매하네요</w>":6516,"취미생활":6517,"부담스러워하지</w>":6518,"가까운</w>":6519,"도서관":6520,"바꿔보세요</w>":6521,"피해를</w>":6522,"과정이에요</w>":6523,"있으니까</w>":6524,"있으신가봐요</w>":6525,"미세먼지가</w>":6526,"권태기가</w>":6527,"신혼여행</w>":6528,"여사친이</w>":6529,"이루어":6530,"잊는다는</w>":6531,"정확하게</w>":6532,"차별해</w>":6533,"희망이</w>":6534,"필요하다면</w>":6535,"거절의</w>":6536,"괴로워</w>":6537,"외국인인데</w>":6538,"이름이</w>":6539,"조절을</w>":6540,"걸리겠지만</w>":6541,"놀이동":6542,"바빠도</w>":6543,"바빠서</w>":6544,"소문이</w>":6545,"점심시간":6546,"어떻게해</w>":6547,"어떻게든</w>":6548,"가치관이</w>":6549,"그대로의</w>":6550,"심호흡을</w>":6551,"30분</w>":6552,"계절이</w>":6553,"물리적</w>":6554,"선톡을</w>":6555,"슬퍼하고</w>":6556,"시계는</w>":6557,"어제와</w>":6558,"오르네</w>":6559,"차가워</w>":6560,"두려워하지</w>":6561,"프로포즈":6562,"프로포즈</w>":6563,"쓰레기야</w>":6564,"sns를</w>":6565,"낭비하지</w>":6566,"마실까</w>":6567,"맞추세요</w>":6568,"콩깍지가</w>":6569,"택시비</w>":6570,"평소에</w>":6571,"기원합니다</w>":6572,"반응이</w>":6573,"보시면</w>":6574,"비난하지</w>":6575,"신중하게</w>":6576,"요즘은</w>":6577,"나아졌길</w>":6578,"강렬한</w>":6579,"노트북</w>":6580,"모른척":6581,"섬유유연":6582,"어필해보세요</w>":6583,"좋으련만</w>":6584,"케이스</w>":6585,"떠오르는</w>":6586,"막힌다</w>":6587,"바꿀까</w>":6588,"소모가</w>":6589,"오락가락":6590,"잃어버렸어</w>":6591,"차갑게</w>":6592,"아이스크림</w>":6593,"보이스피싱</w>":6594,"뒤숭숭":6595,"알콩달콩</w>":6596,"인테리어</w>":6597,"프라이버시":6598,"12":6599,"1달</w>":6600,"20":6601,"3초":6602,"3일째</w>":6603,"5개월":6604,"5일째</w>":6605,"9년":6606,"AS":6607,"B형</w>":6608,"as</w>":6609,"가게":6610,"가의</w>":6611,"가재</w>":6612,"가기도</w>":6613,"가는거</w>":6614,"가리세요</w>":6615,"가기로</w>":6616,"가고싶다</w>":6617,"각질":6618,"간직":6619,"간은</w>":6620,"간다고</w>":6621,"간만에</w>":6622,"감당</w>":6623,"감으세요</w>":6624,"감각이</w>":6625,"갔는지</w>":6626,"강요":6627,"갖게</w>":6628,"같음</w>":6629,"개시":6630,"객관":6631,"걔는</w>":6632,"거기":6633,"거라면</w>":6634,"건들지</w>":6635,"걷고</w>":6636,"걷길</w>":6637,"걸릴":6638,"걸음":6639,"걸린</w>":6640,"걸음을</w>":6641,"검색":6642,"것이죠</w>":6643,"것만큼</w>":6644,"겠대</w>":6645,"겠네여</w>":6646,"겨울</w>":6647,"경제":6648,"계획</w>":6649,"계기가</w>":6650,"고기":6651,"고싶":6652,"고있":6653,"고통</w>":6654,"고장</w>":6655,"고파</w>":6656,"고치고</w>":6657,"고양이</w>":6658,"곳이죠</w>":6659,"곳까지</w>":6660,"공간":6661,"공시생":6662,"과연</w>":6663,"교양</w>":6664,"구별":6665,"구분":6666,"구가</w>":6667,"구를</w>":6668,"귀로</w>":6669,"그린":6670,"그대</w>":6671,"그걸</w>":6672,"그땐</w>":6673,"그것도</w>":6674,"극히</w>":6675,"근데</w>":6676,"글쎄":6677,"글자":6678,"기로":6679,"기술":6680,"기지</w>":6681,"기에는</w>":6682,"기르고</w>":6683,"기만해도</w>":6684,"기술이</w>":6685,"긴다</w>":6686,"길지</w>":6687,"길만</w>":6688,"길면</w>":6689,"깎아":6690,"꺼야</w>":6691,"꼬박":6692,"꼬박</w>":6693,"꼼수를</w>":6694,"꽃길만</w>":6695,"꾸미":6696,"끄는</w>":6697,"끊어":6698,"끊겼어</w>":6699,"끌어":6700,"끓여":6701,"끝냈":6702,"끝인":6703,"끝일":6704,"끝의</w>":6705,"끝인</w>":6706,"끝낼</w>":6707,"끝이네</w>":6708,"나가</w>":6709,"나야</w>":6710,"나길</w>":6711,"나겠네요</w>":6712,"나오네</w>":6713,"나갈까</w>":6714,"나왔네</w>":6715,"나갔어</w>":6716,"나갈거예요</w>":6717,"나올거</w>":6718,"낚시</w>":6719,"날이네요</w>":6720,"남과</w>":6721,"남들</w>":6722,"남길</w>":6723,"남기</w>":6724,"남이에요</w>":6725,"남이니</w>":6726,"남겨서</w>":6727,"났나봐</w>":6728,"낳을":6729,"내지</w>":6730,"내길</w>":6731,"내는게</w>":6732,"내일이</w>":6733,"내일을</w>":6734,"낼까</w>":6735,"너의</w>":6736,"넓으":6737,"넘을</w>":6738,"넘은</w>":6739,"넘었는데</w>":6740,"넣을</w>":6741,"네ㅠ</w>":6742,"노후</w>":6743,"노려</w>":6744,"놀까</w>":6745,"농구":6746,"농담":6747,"높겠네요</w>":6748,"높이가</w>":6749,"놔둬":6750,"누락":6751,"누굴</w>":6752,"눈썹</w>":6753,"눈높이가</w>":6754,"는데":6755,"는다는</w>":6756,"는건가</w>":6757,"늦었어요</w>":6758,"니깐</w>":6759,"다닐":6760,"다듬":6761,"다짐":6762,"다녀</w>":6763,"다닐</w>":6764,"다툼</w>":6765,"다하세요</w>":6766,"다리가</w>":6767,"다릅니다</w>":6768,"단체":6769,"단점을</w>":6770,"단맛도</w>":6771,"달래</w>":6772,"달라요</w>":6773,"달에는</w>":6774,"닮은</w>":6775,"답정":6776,"답장</w>":6777,"당한</w>":6778,"당하는</w>":6779,"대수":6780,"대우":6781,"대체":6782,"대충":6783,"대피":6784,"대는</w>":6785,"더워서</w>":6786,"덜어보세요</w>":6787,"데가</w>":6788,"도망":6789,"도전</w>":6790,"도에</w>":6791,"독이</w>":6792,"돌면</w>":6793,"돌리는</w>":6794,"동영":6795,"되짚":6796,"되어요</w>":6797,"되네요</w>":6798,"되겠죠</w>":6799,"되려고</w>":6800,"되니까</w>":6801,"되는거</w>":6802,"되시길</w>":6803,"되려면</w>":6804,"된다</w>":6805,"된다면</w>":6806,"두달":6807,"두지</w>":6808,"두푼</w>":6809,"뒀나봐요</w>":6810,"뒤에</w>":6811,"뒹굴":6812,"드위":6813,"드리는</w>":6814,"득템":6815,"듣는</w>":6816,"들의</w>":6817,"들었나봐요</w>":6818,"들려주세요</w>":6819,"따듯한</w>":6820,"땀을</w>":6821,"때의</w>":6822,"때죠</w>":6823,"때로</w>":6824,"때부터</w>":6825,"때로는</w>":6826,"떨고</w>":6827,"떨린다</w>":6828,"또한</w>":6829,"똑같애</w>":6830,"뛰어":6831,"뛰어</w>":6832,"뜨겁":6833,"뜨리기</w>":6834,"띄는</w>":6835,"라니</w>":6836,"라는게</w>":6837,"라이트":6838,"랑은</w>":6839,"랑이보다</w>":6840,"랜선</w>":6841,"랬다</w>":6842,"런지</w>":6843,"렀어</w>":6844,"레시":6845,"력서</w>":6846,"력에</w>":6847,"렵니다</w>":6848,"리드":6849,"리적인</w>":6850,"린대로</w>":6851,"림을</w>":6852,"마중</w>":6853,"마디</w>":6854,"마른</w>":6855,"마셔</w>":6856,"막말</w>":6857,"만화":6858,"만해</w>":6859,"만지지</w>":6860,"많으시":6861,"말에</w>":6862,"말자</w>":6863,"말해주":6864,"맘처럼</w>":6865,"맘같지</w>":6866,"맛집":6867,"맛있을</w>":6868,"맛있어</w>":6869,"맛있다</w>":6870,"망설":6871,"망함</w>":6872,"맞아</w>":6873,"맡기세요</w>":6874,"매가</w>":6875,"맥이</w>":6876,"맷해보세요</w>":6877,"먹먹":6878,"먹은</w>":6879,"먹어도</w>":6880,"먹거나</w>":6881,"멈춰":6882,"멋져</w>":6883,"메뉴":6884,"면역":6885,"면접":6886,"명한</w>":6887,"명품</w>":6888,"명상을</w>":6889,"모으":6890,"모아</w>":6891,"모습</w>":6892,"목소리</w>":6893,"몰려":6894,"몸에는</w>":6895,"못참고</w>":6896,"무모":6897,"무언":6898,"무조건</w>":6899,"문화":6900,"문제</w>":6901,"뭐지</w>":6902,"뭐해</w>":6903,"뭐로</w>":6904,"뭐하는</w>":6905,"뭐하면</w>":6906,"뭐하나</w>":6907,"뭘로</w>":6908,"미루":6909,"미용":6910,"미칠":6911,"믿지</w>":6912,"믿고</w>":6913,"밀려":6914,"밀어보세요</w>":6915,"바구":6916,"바퀴":6917,"바늘</w>":6918,"반년":6919,"반한</w>":6920,"받네</w>":6921,"받기</w>":6922,"받으면서</w>":6923,"받으시":6924,"밥을</w>":6925,"방향":6926,"방에</w>":6927,"방학</w>":6928,"배워</w>":6929,"배정</w>":6930,"배울</w>":6931,"배울까</w>":6932,"버는</w>":6933,"벅찰":6934,"베트":6935,"베프":6936,"베풀고</w>":6937,"변화</w>":6938,"변해요</w>":6939,"병신":6940,"보듬":6941,"보일</w>":6942,"보신</w>":6943,"보험</w>":6944,"보려고</w>":6945,"보기로</w>":6946,"보기만</w>":6947,"보다보면</w>":6948,"보답을</w>":6949,"봐주":6950,"봐봐요</w>":6951,"봐주세요</w>":6952,"부질":6953,"부의</w>":6954,"부려</w>":6955,"분이":6956,"분담해보세요</w>":6957,"불효":6958,"불안해</w>":6959,"브랜":6960,"블록":6961,"비가":6962,"비싼":6963,"비용":6964,"비를</w>":6965,"비세요</w>":6966,"비정상":6967,"빌어":6968,"빠지면</w>":6969,"뻑뻑":6970,"뿌린대로</w>":6971,"뿐이":6972,"사전":6973,"사춘":6974,"사야</w>":6975,"사탕</w>":6976,"사정을</w>":6977,"사생활이</w>":6978,"산책</w>":6979,"산책을</w>":6980,"살쪄":6981,"상메":6982,"상이</w>":6983,"새가</w>":6984,"새신발</w>":6985,"샌드위":6986,"생생":6987,"서는</w>":6988,"서와</w>":6989,"서부터</w>":6990,"선배":6991,"선풍":6992,"설득":6993,"설계</w>":6994,"성덕":6995,"성적</w>":6996,"성향</w>":6997,"성격</w>":6998,"성이에요</w>":6999,"성적이</w>":7000,"세어</w>":7001,"세워보세요</w>":7002,"셨나요</w>":7003,"소가</w>":7004,"소화가</w>":7005,"소소한</w>":7006,"속박":7007,"속으로</w>":7008,"손톱":7009,"손으로</w>":7010,"손가락":7011,"수업":7012,"술마시":7013,"쉽지가</w>":7014,"시험":7015,"시려</w>":7016,"시선을</w>":7017,"식물":7018,"신청":7019,"신고</w>":7020,"실천":7021,"실행":7022,"실을</w>":7023,"실거예요</w>":7024,"싫어요</w>":7025,"싫은데</w>":7026,"심심해</w>":7027,"싶으면</w>":7028,"싸움":7029,"싸웠어</w>":7030,"쌩얼":7031,"썸도</w>":7032,"썸타고</w>":7033,"쓰면서</w>":7034,"쓰려고</w>":7035,"쓰이는</w>":7036,"씁쓸":7037,"아물":7038,"아울":7039,"아니</w>":7040,"아픔</w>":7041,"아마</w>":7042,"아는거</w>":7043,"안됐":7044,"안주":7045,"안이</w>":7046,"안하지</w>":7047,"안좋은</w>":7048,"안하면</w>":7049,"안부를</w>":7050,"않겠네요</w>":7051,"않지요</w>":7052,"알까</w>":7053,"았네</w>":7054,"앞머리":7055,"앞에선</w>":7056,"애프":7057,"애기</w>":7058,"액정</w>":7059,"야근</w>":7060,"야겠죠</w>":7061,"야되는데</w>":7062,"양제</w>":7063,"어른":7064,"어흥</w>":7065,"어지고</w>":7066,"어두세요</w>":7067,"어떠세요</w>":7068,"없지요</w>":7069,"없는지</w>":7070,"없는거</w>":7071,"없으니까요</w>":7072,"없는걸까</w>":7073,"없답니다</w>":7074,"엇갈":7075,"었을</w>":7076,"었나봐</w>":7077,"엠티</w>":7078,"여지":7079,"여쭤":7080,"여는</w>":7081,"여름</w>":7082,"연이</w>":7083,"연휴</w>":7084,"였나요</w>":7085,"영양제</w>":7086,"예약":7087,"예감은</w>":7088,"오게</w>":7089,"오겠죠</w>":7090,"오디션</w>":7091,"옷이요</w>":7092,"와도</w>":7093,"와인</w>":7094,"와플</w>":7095,"왔나봅니다</w>":7096,"왕이면</w>":7097,"왜이렇게</w>":7098,"왠지</w>":7099,"외출":7100,"욕해</w>":7101,"욕하고</w>":7102,"용량</w>":7103,"우울</w>":7104,"운전":7105,"운가요</w>":7106,"울고</w>":7107,"웃어":7108,"웃으면서</w>":7109,"워야</w>":7110,"원동":7111,"원인":7112,"원이</w>":7113,"원치</w>":7114,"원해보세요</w>":7115,"원한다면</w>":7116,"월요":7117,"월이</w>":7118,"유행":7119,"으아</w>":7120,"으니까</w>":7121,"으려면</w>":7122,"의사</w>":7123,"의견</w>":7124,"의식하는</w>":7125,"이것":7126,"이틀":7127,"이에</w>":7128,"이름</w>":7129,"이크</w>":7130,"이면서</w>":7131,"이어도</w>":7132,"이니까</w>":7133,"이겠지요</w>":7134,"이사를</w>":7135,"이냐에</w>":7136,"이력서</w>":7137,"이왕이면</w>":7138,"인지":7139,"인터":7140,"인줄</w>":7141,"인상</w>":7142,"인연</w>":7143,"인맥이</w>":7144,"일년":7145,"일방":7146,"일부":7147,"일로</w>":7148,"일년</w>":7149,"일인지</w>":7150,"일하면서</w>":7151,"임용</w>":7152,"입어</w>":7153,"입을까</w>":7154,"입으세요</w>":7155,"있대</w>":7156,"있던</w>":7157,"있겠다</w>":7158,"있거나</w>":7159,"있군요</w>":7160,"있으세요</w>":7161,"있는걸까</w>":7162,"있답니다</w>":7163,"있냐고</w>":7164,"자제":7165,"자야지</w>":7166,"자다가</w>":7167,"자리가</w>":7168,"작동":7169,"잖아</w>":7170,"잘라":7171,"잘하면</w>":7172,"잘해야</w>":7173,"잠깐":7174,"잠은</w>":7175,"잡념":7176,"잡히":7177,"잡아도</w>":7178,"잡아보세요</w>":7179,"장학":7180,"장애</w>":7181,"장소</w>":7182,"저로</w>":7183,"저마다":7184,"적어</w>":7185,"적이네요</w>":7186,"전역":7187,"전해</w>":7188,"전하지</w>":7189,"전에는</w>":7190,"접는게</w>":7191,"정정":7192,"정의</w>":7193,"정장</w>":7194,"져서</w>":7195,"졌어요</w>":7196,"조건":7197,"조가</w>":7198,"졸린":7199,"종지":7200,"좋음</w>":7201,"좋대요</w>":7202,"죄가</w>":7203,"주려</w>":7204,"주실거예요</w>":7205,"죽겠다</w>":7206,"죽어도</w>":7207,"준대</w>":7208,"줘요</w>":7209,"줬더니</w>":7210,"즐겨":7211,"즐기는</w>":7212,"증명":7213,"증오":7214,"지각":7215,"지속":7216,"지압":7217,"지내</w>":7218,"지낼</w>":7219,"지쳐</w>":7220,"지네요</w>":7221,"지웠어</w>":7222,"지능에</w>":7223,"지극히</w>":7224,"직전</w>":7225,"직접적으로</w>":7226,"진리":7227,"진지</w>":7228,"질문":7229,"질러보세요</w>":7230,"집에서도</w>":7231,"짠하고</w>":7232,"짧은":7233,"짧죠</w>":7234,"찍는</w>":7235,"차가</w>":7236,"차였는데</w>":7237,"참다</w>":7238,"참았어</w>":7239,"창업":7240,"챙기세요</w>":7241,"처리":7242,"처리</w>":7243,"첫인상":7244,"청결":7245,"청춘":7246,"청약</w>":7247,"체적으로</w>":7248,"초기":7249,"초록":7250,"최저":7251,"최신</w>":7252,"추석</w>":7253,"출퇴근":7254,"춥네</w>":7255,"충격</w>":7256,"취해서</w>":7257,"치료</w>":7258,"친절":7259,"친해질</w>":7260,"칭찬</w>":7261,"커서</w>":7262,"컨트":7263,"킁킁</w>":7264,"키울</w>":7265,"타나</w>":7266,"타면</w>":7267,"타러</w>":7268,"탈퇴":7269,"탔어</w>":7270,"태연":7271,"택시</w>":7272,"터지":7273,"테니</w>":7274,"텐대요</w>":7275,"토닥":7276,"톡이</w>":7277,"통화":7278,"틀리는</w>":7279,"파도</w>":7280,"파혼</w>":7281,"파도가</w>":7282,"팍팍</w>":7283,"패션":7284,"패턴":7285,"페메</w>":7286,"편지":7287,"편하고</w>":7288,"편으로</w>":7289,"편지도</w>":7290,"평소</w>":7291,"포기가</w>":7292,"포맷해보세요</w>":7293,"폭식":7294,"폰이</w>":7295,"표가</w>":7296,"표정</w>":7297,"풀리":7298,"품이</w>":7299,"피해</w>":7300,"피하는</w>":7301,"하던":7302,"하진</w>":7303,"하아</w>":7304,"하냐</w>":7305,"하다면</w>":7306,"하겠지</w>":7307,"학생":7308,"학원":7309,"학식</w>":7310,"한듯</w>":7311,"한강</w>":7312,"한푼</w>":7313,"한대로</w>":7314,"한순간":7315,"한심해</w>":7316,"한답니다</w>":7317,"한가지만</w>":7318,"한바퀴":7319,"할수":7320,"할걸</w>":7321,"할거</w>":7322,"할때는</w>":7323,"함에</w>":7324,"합리적인</w>":7325,"해로":7326,"해봤":7327,"해줄":7328,"해준</w>":7329,"해드세요</w>":7330,"해줬어</w>":7331,"해보여요</w>":7332,"해봤는데</w>":7333,"했다고</w>":7334,"했을거라</w>":7335,"행운":7336,"허락":7337,"허리</w>":7338,"허리가</w>":7339,"호랑이보다</w>":7340,"혼수</w>":7341,"혼술</w>":7342,"화나</w>":7343,"확률":7344,"황당":7345,"후는</w>":7346,"훔쳐":7347,"휴학":7348,"휴식도</w>":7349,"흐른</w>":7350,"흐르는</w>":7351,"흘려보세요</w>":7352,"좋아지는</w>":7353,"사랑니</w>":7354,"사랑이에요</w>":7355,"사랑할까</w>":7356,"사랑이죠</w>":7357,"사랑인지</w>":7358,"사랑스러운</w>":7359,"사랑하니까</w>":7360,"사람친구</w>":7361,"사람이야</w>":7362,"생각해":7363,"생각도</w>":7364,"생각한</w>":7365,"생각이네요</w>":7366,"생각들을</w>":7367,"생각할게요</w>":7368,"생각할수록</w>":7369,"생각한대로</w>":7370,"친구로":7371,"친구인데</w>":7372,"친구라면</w>":7373,"마음에서</w>":7374,"마음이랑</w>":7375,"연락도</w>":7376,"연락할까</w>":7377,"연락하는게</w>":7378,"연락왔어</w>":7379,"연락해봐요</w>":7380,"연락이라도</w>":7381,"연락해보는</w>":7382,"연락하라고</w>":7383,"여자로</w>":7384,"여자에게</w>":7385,"남자입니다</w>":7386,"힘들까</w>":7387,"힘들지만</w>":7388,"힘들겠죠</w>":7389,"이별하는</w>":7390,"시간과</w>":7391,"시간표</w>":7392,"시간이네요</w>":7393,"시간인데</w>":7394,"시간내서</w>":7395,"만나자</w>":7396,"괜찮다</w>":7397,"괜찮길</w>":7398,"괜찮겠지</w>":7399,"괜찮을거</w>":7400,"자신은</w>":7401,"아니지</w>":7402,"아니네</w>":7403,"아니길</w>":7404,"필요해보여요</w>":7405,"당신만이</w>":7406,"해야겠네요</w>":7407,"해야하나봐</w>":7408,"해야겠네여</w>":7409,"기다리세요</w>":7410,"기다릴게요</w>":7411,"정리해</w>":7412,"정리에</w>":7413,"행복하세요</w>":7414,"행복해질</w>":7415,"연애하는데</w>":7416,"결혼하":7417,"결혼을</w>":7418,"결혼하고</w>":7419,"하는대로</w>":7420,"오늘이에요</w>":7421,"찾아가</w>":7422,"찾아봐요</w>":7423,"찾아오는</w>":7424,"사귀어</w>":7425,"헤어지기</w>":7426,"고민이죠</w>":7427,"고민하느라</w>":7428,"이었는데</w>":7429,"고백하세요</w>":7430,"고백하는게</w>":7431,"준비할</w>":7432,"준비중</w>":7433,"준비하느라</w>":7434,"준비하기는</w>":7435,"들어줄":7436,"들어가</w>":7437,"들어가서</w>":7438,"후회해</w>":7439,"후회만</w>":7440,"후회하는</w>":7441,"후회할까</w>":7442,"지금의</w>":7443,"지금부터</w>":7444,"데이인데</w>":7445,"힘드니까요</w>":7446,"힘드시겠어요</w>":7447,"시작할</w>":7448,"시작하기</w>":7449,"짝녀를</w>":7450,"감정기":7451,"그녀도</w>":7452,"가능한</w>":7453,"가능하면</w>":7454,"가능하죠</w>":7455,"가능하다고</w>":7456,"가능한가</w>":7457,"걱정이야</w>":7458,"걱정하지마세요</w>":7459,"걱정되겠어요</w>":7460,"하나죠</w>":7461,"이야기하는</w>":7462,"스러웠":7463,"이상적인</w>":7464,"있었어</w>":7465,"있었을지도</w>":7466,"신경써</w>":7467,"표현해</w>":7468,"표현하지</w>":7469,"표현해보는</w>":7470,"아닌거</w>":7471,"알아보는</w>":7472,"알아두세요</w>":7473,"공부할</w>":7474,"공부하세요</w>":7475,"공부하면</w>":7476,"공부해야지</w>":7477,"다가가세요</w>":7478,"만들기</w>":7479,"만들었어요</w>":7480,"물어보":7481,"물어보고</w>":7482,"물어봐도</w>":7483,"선물하면</w>":7484,"선물이네요</w>":7485,"생겼을지도</w>":7486,"기억해</w>":7487,"기억에</w>":7488,"기억은</w>":7489,"보내지</w>":7490,"보내시길</w>":7491,"이해를</w>":7492,"이해해보세요</w>":7493,"이해하고</w>":7494,"이해하기</w>":7495,"혼자서</w>":7496,"혼자를</w>":7497,"혼자해도</w>":7498,"누구야</w>":7499,"하루는</w>":7500,"하루하루가</w>":7501,"결정했나봐요</w>":7502,"관심사에</w>":7503,"여행이네요</w>":7504,"아직이라면</w>":7505,"해지네</w>":7506,"해지길</w>":7507,"않았길</w>":7508,"어떡함</w>":7509,"어떡하죠</w>":7510,"이유로</w>":7511,"조심히</w>":7512,"신경쓰이":7513,"신경쓰고</w>":7514,"신경쓰면</w>":7515,"방법도</w>":7516,"미련을</w>":7517,"축하해주세요</w>":7518,"만났든</w>":7519,"만났던</w>":7520,"답답할</w>":7521,"답답해서</w>":7522,"운동할</w>":7523,"운동해보세요</w>":7524,"운동하세요</w>":7525,"확실해지면</w>":7526,"달라진</w>":7527,"달라지지</w>":7528,"달라져요</w>":7529,"되었을</w>":7530,"사이로</w>":7531,"이어질</w>":7532,"이어폰</w>":7533,"이어보고</w>":7534,"이어주는</w>":7535,"이어나가는</w>":7536,"잘못입니다</w>":7537,"그렇겠죠</w>":7538,"인생의</w>":7539,"인생에서</w>":7540,"위로를</w>":7541,"확인하는</w>":7542,"확인해달라고</w>":7543,"마시지</w>":7544,"말씀드려보세요</w>":7545,"이제서야</w>":7546,"일어날</w>":7547,"일어나면</w>":7548,"재미있어</w>":7549,"재미있나봐요</w>":7550,"하고는</w>":7551,"하고싶다</w>":7552,"하고싶은데</w>":7553,"잊어야":7554,"괜찮아지고</w>":7555,"상대방의</w>":7556,"다르지</w>":7557,"다르게</w>":7558,"그런가</w>":7559,"그런지</w>":7560,"관계의</w>":7561,"나가면</w>":7562,"화장이</w>":7563,"화장품</w>":7564,"건강을</w>":7565,"건강하게</w>":7566,"떨어뜨":7567,"떨어지는</w>":7568,"많았나봅니다</w>":7569,"성공한</w>":7570,"성공적으로</w>":7571,"기다리던</w>":7572,"잊혀질까</w>":7573,"좋을거</w>":7574,"먹어야</w>":7575,"살아가":7576,"살아있음</w>":7577,"재밌을</w>":7578,"재밌겠어요</w>":7579,"재밌는거</w>":7580,"챙겨주면</w>":7581,"챙겨드시":7582,"모습도</w>":7583,"예의일</w>":7584,"도와달라고</w>":7585,"만남은</w>":7586,"만남이네요</w>":7587,"문제죠</w>":7588,"문제네요</w>":7589,"피곤했나봐요</w>":7590,"친구들을</w>":7591,"친구들한테</w>":7592,"노래가</w>":7593,"노래는</w>":7594,"무시해</w>":7595,"짜증나":7596,"짜증날</w>":7597,"짜증나네</w>":7598,"끝났습니다</w>":7599,"하셨나봐요</w>":7600,"하셨겠어요</w>":7601,"아침부터</w>":7602,"함께도</w>":7603,"함께하고</w>":7604,"따뜻해졌":7605,"아픔도</w>":7606,"하다보니</w>":7607,"다녀도</w>":7608,"다녀왔어</w>":7609,"엄마랑</w>":7610,"여친에게</w>":7611,"정신없이</w>":7612,"정신건강에</w>":7613,"정신차리세요</w>":7614,"먹었더니</w>":7615,"예뻐질</w>":7616,"오래오래</w>":7617,"익숙해질</w>":7618,"지났는데</w>":7619,"가족한테</w>":7620,"극복해보세요</w>":7621,"어느새</w>":7622,"즐거울</w>":7623,"그만둬":7624,"행동이</w>":7625,"행동은</w>":7626,"후련하":7627,"후련하니</w>":7628,"거짓말을</w>":7629,"거짓말은</w>":7630,"다행이네요</w>":7631,"시켜달라고</w>":7632,"외로움을</w>":7633,"자체만으로</w>":7634,"추천해":7635,"너무너무</w>":7636,"너무나도</w>":7637,"바람이라도</w>":7638,"부족해</w>":7639,"소중합니다</w>":7640,"아이디</w>":7641,"응원할게요</w>":7642,"부모님을</w>":7643,"데려가세요</w>":7644,"도전은</w>":7645,"싸우고</w>":7646,"헤어짐은</w>":7647,"다니면서</w>":7648,"어렵다</w>":7649,"기다려도</w>":7650,"대화의</w>":7651,"대화하는</w>":7652,"설레는</w>":7653,"놀러가세요</w>":7654,"분위기를</w>":7655,"연인과</w>":7656,"자리에</w>":7657,"최고의</w>":7658,"커피가</w>":7659,"커피는</w>":7660,"어쩌면</w>":7661,"존중하고</w>":7662,"존중해주세요</w>":7663,"스트레스를</w>":7664,"스트레스야</w>":7665,"스트레스의</w>":7666,"헷갈리네</w>":7667,"10년</w>":7668,"비밀을</w>":7669,"비밀은</w>":7670,"예민한</w>":7671,"예민해</w>":7672,"해결될</w>":7673,"해결되길</w>":7674,"헤아릴</w>":7675,"용기내":7676,"키우는</w>":7677,"해졌어요</w>":7678,"귀여울</w>":7679,"나이테":7680,"나이에</w>":7681,"많은가</w>":7682,"많은걸</w>":7683,"불편한</w>":7684,"불편하겠죠</w>":7685,"어머어머</w>":7686,"월급은</w>":7687,"고마움을</w>":7688,"매력을</w>":7689,"보냈네</w>":7690,"보냈습니다</w>":7691,"부탁드립니다</w>":7692,"사과할</w>":7693,"삭제해보세요</w>":7694,"삭제하는게</w>":7695,"얼굴에</w>":7696,"없어졌어</w>":7697,"위험한</w>":7698,"위험해</w>":7699,"이기니</w>":7700,"청소하세요</w>":7701,"취직하면</w>":7702,"칭찬이네요</w>":7703,"칭찬해주고</w>":7704,"한번만</w>":7705,"한번더</w>":7706,"소개팅하고</w>":7707,"소개팅으로</w>":7708,"선생님께</w>":7709,"감사하는</w>":7710,"기간을</w>":7711,"기본이</w>":7712,"기본으로</w>":7713,"기본이죠</w>":7714,"나눠보는게</w>":7715,"무너져요</w>":7716,"쇼핑하고</w>":7717,"결정이었을거라</w>":7718,"다른걸</w>":7719,"동안의</w>":7720,"만난다면</w>":7721,"벗어나는</w>":7722,"상관없지만</w>":7723,"안타까":7724,"적응해야겠네요</w>":7725,"커플링</w>":7726,"무섭나요</w>":7727,"미워하지</w>":7728,"바쁜일이</w>":7729,"발전이</w>":7730,"변화도</w>":7731,"애매한</w>":7732,"없애주세요</w>":7733,"우연이</w>":7734,"종교의</w>":7735,"채워질</w>":7736,"취미네요</w>":7737,"부담스러워할까</w>":7738,"간절히</w>":7739,"간절하겠네요</w>":7740,"미래를</w>":7741,"사라질</w>":7742,"시키는</w>":7743,"싶어하는</w>":7744,"오해가</w>":7745,"피해만</w>":7746,"갑작스럽":7747,"갑작스러운</w>":7748,"기울여":7749,"깔끔해질</w>":7750,"대단하네요</w>":7751,"대단하시군요</w>":7752,"따라가":7753,"병원가세요</w>":7754,"비교하면</w>":7755,"조급해지면</w>":7756,"가끔씩</w>":7757,"견뎌내고</w>":7758,"권태기</w>":7759,"나쁜거예요</w>":7760,"남았네요</w>":7761,"다는것</w>":7762,"멀어지면</w>":7763,"쉬어가도</w>":7764,"시어머니":7765,"으로는</w>":7766,"졸업하는데</w>":7767,"졸업식에</w>":7768,"지쳐서</w>":7769,"판단되면</w>":7770,"희망은</w>":7771,"받아들여야</w>":7772,"일어나세요</w>":7773,"안타깝게</w>":7774,"멈추지</w>":7775,"멈추세요</w>":7776,"생긴다는</w>":7777,"어플을</w>":7778,"어플로</w>":7779,"이름이랑</w>":7780,"중간에</w>":7781,"고치기</w>":7782,"놀이공원</w>":7783,"막히는</w>":7784,"모두에게</w>":7785,"부분을</w>":7786,"비싸요</w>":7787,"시기네요</w>":7788,"신고하고</w>":7789,"썸녀가</w>":7790,"썸녀한테</w>":7791,"어찌해야</w>":7792,"움직이세요</w>":7793,"점심시간에</w>":7794,"진실된</w>":7795,"핸드폰이</w>":7796,"과식하지</w>":7797,"목표네요</w>":7798,"빠르면</w>":7799,"아껴뒀나봐요</w>":7800,"어리석":7801,"어리게</w>":7802,"외롭고</w>":7803,"용서하고</w>":7804,"웨딩이</w>":7805,"절약되겠네요</w>":7806,"헬스장에</w>":7807,"넘어가네</w>":7808,"놀랐나봐요</w>":7809,"놀랐겠어요</w>":7810,"무거워</w>":7811,"반가워요</w>":7812,"베터리</w>":7813,"셀프웨딩</w>":7814,"스테이크</w>":7815,"우산에</w>":7816,"인공지능에</w>":7817,"콩깍지</w>":7818,"클럽에서</w>":7819,"알아차리지</w>":7820,"알아차려도</w>":7821,"드라이브</w>":7822,"결과가</w>":7823,"마셨는데</w>":7824,"망가뜨리기</w>":7825,"메모하는</w>":7826,"버스가</w>":7827,"설렘이</w>":7828,"성별을</w>":7829,"스터디</w>":7830,"야경이</w>":7831,"에너지가</w>":7832,"에너지를</w>":7833,"이불밖은</w>":7834,"인내할</w>":7835,"저녁에</w>":7836,"최악의</w>":7837,"포근한</w>":7838,"좋아하시는구나</w>":7839,"사랑하는지는</w>":7840,"의미부여</w>":7841,"간사하죠</w>":7842,"결국엔</w>":7843,"기준이</w>":7844,"깨닫다니</w>":7845,"낭만적인</w>":7846,"들리려고</w>":7847,"들었겠네요</w>":7848,"마침표</w>":7849,"모아야할</w>":7850,"버티고</w>":7851,"새출발":7852,"염색을</w>":7853,"좋으시네요</w>":7854,"주의하세요</w>":7855,"줄어들</w>":7856,"즐겁게</w>":7857,"치료하세요</w>":7858,"트라우마":7859,"호의를</w>":7860,"결혼적령기":7861,"가족들이랑</w>":7862,"아름답죠</w>":7863,"두근거림을</w>":7864,"발렌타인데이</w>":7865,"봉사활동</w>":7866,"불공평해</w>":7867,"지하철에</w>":7868,"구멍이</w>":7869,"단호하게</w>":7870,"동감입니다</w>":7871,"로봇이에요</w>":7872,"보험처리</w>":7873,"불면증</w>":7874,"비행기":7875,"사겨도</w>":7876,"서류에서</w>":7877,"세우지</w>":7878,"소액결":7879,"소유하는</w>":7880,"수학여행":7881,"스키장</w>":7882,"심어볼까</w>":7883,"쓸데없는</w>":7884,"안경테</w>":7885,"애틋한</w>":7886,"어둠에서</w>":7887,"어젯밤</w>":7888,"언니랑</w>":7889,"위해서예요</w>":7890,"잇몸약</w>":7891,"잠재력을</w>":7892,"지진시</w>":7893,"짜장면</w>":7894,"찌질한</w>":7895,"친해지는게</w>":7896,"형편대로</w>":7897,"위로해드리는</w>":7898,"스타트업에</w>":7899,"현금영수증</w>":7900,"보일러가</w>":7901,"부딪혔나봐요</w>":7902,"애정표현일</w>":7903,"기프트콘</w>":7904,"가볍게</w>":7905,"근처로</w>":7906,"금수저로</w>":7907,"당분간은</w>":7908,"몸무게</w>":7909,"무한리":7910,"비하하지는</w>":7911,"센터에</w>":7912,"아팠으면</w>":7913,"안해먹고</w>":7914,"염탐하지</w>":7915,"이럴까</w>":7916,"이모티":7917,"지루해</w>":7918,"지칠만</w>":7919,"지저분해요</w>":7920,"축의금</w>":7921,"컴퓨터가</w>":7922,"편의점</w>":7923,"포장하는게</w>":7924,"한국도</w>":7925,"연락두절돼서</w>":7926,"행복해보여</w>":7927,"프로포즈해보세요</w>":7928,"AS센터에</w>":7929,"각질제":7930,"간직하세요</w>":7931,"개시해보세요</w>":7932,"그린라이트":7933,"글쎄요</w>":7934,"꼬박꼬박</w>":7935,"낳을뿐이에요</w>":7936,"넓으신가봐요</w>":7937,"놔둬야하는데</w>":7938,"단체생활</w>":7939,"답정녀</w>":7940,"대피방법을</w>":7941,"동영상</w>":7942,"되짚어보세요</w>":7943,"만화같은</w>":7944,"면역이</w>":7945,"벅찰텐대요</w>":7946,"뻑뻑해</w>":7947,"살쪄도</w>":7948,"샌드위치</w>":7949,"여쭤보세요</w>":7950,"원인이죠</w>":7951,"장학금</w>":7952,"저마다의</w>":7953,"정정기간을</w>":7954,"컨트롤":7955,"한바퀴만</w>":7956,"챙겨드시거나</w>":7957,"따뜻해졌죠</w>":7958,"00일</w>":7959,"11":7960,"2달":7961,"4일</w>":7962,"5일":7963,"6년</w>":7964,"6일째</w>":7965,"7년</w>":7966,"7개월</w>":7967,"8년":7968,"9일째</w>":7969,"가라":7970,"가량":7971,"가을":7972,"가한</w>":7973,"가에</w>":7974,"가을</w>":7975,"가죠</w>":7976,"가자</w>":7977,"가입</w>":7978,"가본</w>":7979,"가나봐요</w>":7980,"가보는</w>":7981,"가니까요</w>":7982,"가리는</w>":7983,"가거나</w>":7984,"가치가</w>":7985,"간에</w>":7986,"간식</w>":7987,"갈궈</w>":7988,"감싸":7989,"감출":7990,"감성</w>":7991,"갑시다</w>":7992,"갔나</w>":7993,"갔네요</w>":7994,"강제":7995,"갖자는</w>":7996,"같죠</w>":7997,"같다면</w>":7998,"갚아</w>":7999}